0110c28fbb58063a5f7200bbd70a61ee6fb6e19196f543c70b5c76a8985e75ed6a4c2a0e42553d287893d8a30ff1f38646462d9d0a06ad6a4d04a29f383d6474e657000400688b2c000000000094020000218761a1000000000000000000000000a40f0404000000000000000000000000000000000000000000000000000000000000000000042a0e42553d287893d8a30ff1f38646462d9d0a06ad6a4d04a29f383d6474e6573214806d0d013a2866000d01050146cf03000000863e9b00001505c40352ca71e26e83b6c86058fd4d3c9643ea5dc11f120a7c80f47ec5770b457d8853018ca894cb3d02aaf9b96741c831a3970cf250a58ec46e6a66f269be0b4b040400ba94330000000000c7020000e0aaf22c000000000000000000000000ad240404000000000000000000000000000000000000000000000000000000000000000000048853018ca894cb3d02aaf9b96741c831a3970cf250a58ec46e6a66f269be0b4bfa5034400501d2be63000501010122b5030000006e1e9b0000f9045a07a258cd8623242b13efdbb90805d7e25d290ed7f175bb553adf6ca8f8d6574e7fe05cf70b09f4c65d2e4f7e2eebb0df77ed4fa530c32dab8185ce563bcc10080400845d360000000000d4020000c70c5503000000000000000000000000080d0404000000000000000000000000000000000000000000000000000000000000000000044e7fe05cf70b09f4c65d2e4f7e2eebb0df77ed4fa530c32dab8185ce563bcc10d210173bfc42586000fcf87eaa03000000daf2b70000cd04e824c935940357af73c961bdd7387e1ab821ec2939ecd19daafe6081ae9ae67404c04d0aab0229a3e43fb5b00680932d53dee07d2756519fd72b2a81e67591630c0401c166380000000000c80200001ddd9d9d0000000000000000000000009c3c04040000000000000000000000000000000000000000000000000000000000000000008113001374e7ba4b9bad96de072920551c2cde790a8382336876fe1118ce7d706e7203d7b31081003dc9a3ee9f0585bf475119f49b069d8610c71c13bd897d1b61724a7b92e53056f111e5004793594f2ac70cf0d55818f147522fc6db57ef55043f528b016bfe021a892007f9b4b005050058943bfeb81d3b7d3e7f78ac5895543a76faf35ab86145c0decf88423f81540788c88b1e0d0074d598573b8ae7a7e396a37f69ab38b5aa3f345e3c09f9399de61578475265075840a115020089113fb94f8b9ae04b1f1638b1644ce36a6bbb0fd755b5b2b8fda55d2d435b0790e67d240600a19841a7d7dc5f38468cce8983c1af0e759baa36473f54195285e0e3e060060711d3caee0100ac143a03ffb3c974d3406341983c60c1f47c78ad9e256844e4660f3830d83c0b9bdb7797640100b0000d6444b253b4ddfe8a3569aee777665b951ee3192433461d624912867907aba2bc490700da559451c50ae4f0aa20d6c11b11da8c44d1951da203aa5ff913828bb67363070887f36a03023cb46596af8928dc511b84c9ba2b43474e0a4e0b07cf85d3fa6c11f696bd32071451f98717023df8d1547b23af013aea11e30bdc40714178a963195a6f91ca9bd19e2f934807a3a4072b01024a27b037ac553a5ada9e5a369868ee0e81302ef61998faffd8262e5d0eb15107d9a7ebac1a024dc199de1e1f8d2a0a4701821348067fa496373ce1556dc2ffb0fc40d76255072f8247d11f026c7b31fcb147c00aa96fe1e2a564716fd870db2021315048d5a9b954b7dd61032e165ba302787cfd6fa4788bba4edd5ea9880f0fe6456f6e43d58d6e1ef7f70953fe067e0760bea51c0f0289c4fa164e818723452998997e285071ba434dd6e6a3952c6510c3956b8327074f2643150102a71457469d0562e301c18142902eaaa65bc6be4e7472667bc0a903a77a895c03ad1c079902f0cc786fa2074cb358be3db94b63068ff212e86cf3a47904326e68e48f4c2ec6e05ae9041514568a839a44559cb0481fa7d2ed3ed6e96bd60707212430448b9ca7f32607eb8666f4320443b0421a0ec9294b0fe8b816c2ea6d3fd174dd33360080f841eebd3c40f71d076b1d108901045641e5b0ef59590b9efdeaa64c768641062bec0a12cee2652715359e01772703273354f40458129fa370882e88952f91025e904ba8608cfc121f5c8dae016c8d9b5fc56707d6f6394f04048ec3e823fc3b570508d9c0308b884931d40aa7773d9c95de889013fd89ee340707261afc09048fa12c2ad349052a034b49e875d904a3d43833aa1c5d717c6966f15e892601000492847c5a502076482ec48d21561459118d994261f2fd79ce4a2e5257bba1430004b674bd5349857e2edbba9173474363a81cbf2331fdd975e43c752a5929ab7b07332c795d0a04c04d0aab0229a3e43fb5b00680932d53dee07d2756519fd72b2a81e67591630733581edd9304ea47a461081cf265c4b39317eef57b502c67cea7eefa2e94be600b6914565c72c3bdfd060abe64010b322a16a221dd489e78a874087c4e478f64dfced4fb69c60cb51807ed80299e3e060e88713f64bb8d32d12a30bbe3d73630728c1ad14e675478869eb86276976e07a40cdbb604061399a3650c807c25bcf4f38cc386251a5b2b833ecf77bf6af8aa5ce2718e1707f30f8a7a030614224be86aeec65cda1154aed400f0c52e6618492da337fa0970e588d3030307b5cf03d7010634f178ffb2219d422681f5bcd623e767e03870a7b5c337828808359582246207d16331be0a0648675ef88d90d723e95c607d4a87c0532775edd44333406c8e32ad0c47b12e035fcb014406588760f2284adf681871f03a2c40897dc4e6aecc70da5c300fbd9aac0ca42d07ee1b5fc6040671ebc7737904857c3fe8fcf3697c4c3eefcc93772de3e6ea5f667c86631979077176699e02067377fe0999d4b62187671419563b99edc1a483fffd3c2cace31318987e956307eaea65ff0106984d7a18b2ed1ea9132e2189ac7a1ebe135150d907dce0ea7bac2cc26cae2d07b4eaa77643069d096e417bbfa7a2452cc5d5991f34ce80b74f6b35cb78a2bfee790d7efb0b075501e39a0406b30e97e4fb66ad813f25c6dbfd7b6a92bf39efbb0f1bf49dd236283f87af0a03357ffffc06c502f0102b4bfc9b94c3fa6a3dbbc7002cc343910746471ac1f19677f80c6f03b69aa3ca06d5b2019ca8f860fd56c7f49774720b27123620bd6d06fcfd3580add4ff5d4f07725cb8390506dacc8e65a4bba89ef15306e23dfcef2ba42690247889d8522209406a6cc067074312236501080356f79a36564bc94bd2462eca729f91c4296bae927fc773ea86302b8b5a69076ba339e501080f4fe6310a267b3bd30def088aba29edc67dd21933d7420b48a150130f5950039fac4941081edb9cc7d7b91995b9425a316244453c4bc4a4dbdc2145cfa523c5bc236f170768601e6b02083447fd825182896796d41fd1e0020210c120b896386330a3c511dc5ad5c663031252b4400840615b4e2a0015235ae5b602cd75f25b87dcf112ea05f7a2dc3a52d5c0fe5007b55bb89306085fcb722f7214513a00aed08c1f7a4236a39c132477faefc578729fc16324360716752b860208b21c97040c6061802f4e7a83a032682d20f95c55ca6f5f22c7efd5d8e250027aaeb38408bd73011f51daee2a027bf489e05cfe8b65541e575b14cc6e2343ea5c87e24007ba6dd2231308e4e8ba07b96fc2d267ca490a5ad532b4ff9c09d44f2180934e53d686c5c51507fe94a36f0808f27f25c99c63b291f36b0a93ffaf677aeb950f25476bb9d485d8b4d818d9457a03b71d08fe72b81000908564f80258937116dac8c95f22985a7266c51e80a18a6b710103371399920a0d76d494ea2b737c45becd3960294add19e8b5eac0055da866b40db222765a07f4596711020a1df714ae0521729ca04ac16a8e6ba5f97593667d08217f32cd0577ae0a6b160745735e8a230a4b56d56e43db7254f240dbf9693dacf5208f5927b71f20213976a357af070e07e3a20ac5070a736c154e5d2dd8e88643c4484507b4a48150815af6d36b1470d08e267ba20603ac423e7a0a7470a91710c01edb932c9eb3610aa088c54de6f0cbdeb7fd71235f3bc3b26f078bc4f807050a9afdb6e5f8fc33840f941811cf906afefdd9fbcf3c31463a4d751ce3a59f450742ca4b77010a9f7f208cc78edaedcdf3fc7d613a9c013684f7a3e7a5d2c4e64f6d4eb4a3765271d7ec0aa91d2c10d7edeb65a46a506adaa2f3827d1e9180695e197c753bedcf9db26307276b23c50b0aad24a735e7bcfa10abed2a205009713daf7a81993309db6a4aabf33ade0b3c073eddcf47020ab807f32526f17bfad7c70e60dce87e77b377e271a6b07724ff38ba2fecbc22073c3548c20c0c1cc50d46037d541ff88e6a1630d68209de9bedf3f7fe646e8088b0d681b960032e0c48590c28e4bf7d08d5324610e91f7a96fcca3092901b6f93b10fe0998fe3ab2b2c2de6b934fe0c42d71ee4afdd686a8d7d72e352070843ea3fa2c96af660de6fe498f0d2a9570754e30e8a050c673b89d873602836a826f182c1cb628068d49df2cf55dfca77b0071bfaf863161456fe0c6d764d5f1a8d171c6a79d7a82562e4fbd8f731ff81acc114efbe35b2cbfe6d079e36a6f2120c97cf6317c18e234671c2df3ebd7f53ea72ddbfc8c41b8e251da268e5f8203c078d001f3c010e04df69055dbebda19cc7f898251ed272a56dee75ebf81494d74863b8676247033bf50c830e09c2fca96805d3903a51e68d1e333b91b18690fb91300d277ee23e97d8811c03d877c5be0e353b5c5619ad6444de98902dd68bb809aed721e51895c60c4218a9084af01907a271e7a3030e568ec11253e7b09457893ee64c2b48d0a19799447edf630eb4d991fd5db70e079479a0c1210e86533834d5054589e1f9e5346fd69af8365a3b44c0b7c2bfc264e66fadc92d07efce5963010eb342d06ea5047c4acc8e123b24cad8803f8f4a6a30e84935608c7a6bf3525072dd36770ec424c133dd993a54947978218d028ce542db82fa0295b352108955dfc5dd36036a5d7c410ed0f533e0270d8fa13a5852f2310b09e4cc6bb0fc174dcc5fe5183f20ce3c00071ba0105c010ed47a3c5d9fc5612ae7b8f02585298aef42161140370c1c6169061963792f0c07b81164681c0ef502313aabc5a248a280e8c9874ef85ad5d5c9cc7d104e68d5f12c1751697607bdce1667060ef765d94a97b9cef8efbe8b0bd25961292662c7fcb13605945467a994c08231000efa1b6b080a204e35cddb54c91d31892ac79ad1afa9ed50a35b04e90687c85e071e34947b2d102b78db25df63a3f9a8cca95cd4269512bfe31f4e097874016dd092349a3f17070ebe7b7f2e106c34bd1b22228440f8c04e7e5a68ab7f442883aa8e4d46b40b1b9be3b8100003dc49b842108f9edecfa0af523ec5111b6704a632f8c39ed9bfc9361faf569623f20f727407f6a9e9460f109ca9611973c6860e5f2c5467c2237f8b8ed150e745e067bba47fdcc937554d07ac29baec0810a53833a39c0dc63ed8716a3ab92125242d9a3557423cf2618ab6cc9b7d9967072f1f33af0510a81ea3db8d38707f0ec82c568c0104abb210788f3a4c9752f5a16dd12af83a03b857474010c1e8b48bbfce8ce9829b49af3e78d0251f8457e2e6b6ecc784deebaa3e571b0328d7b6e01217649c8428ed4505e879bc59c25dd62696ff57496464175e126b11d7f5da2407ed975baf121220a8bdfd11522a3daea23716b84cfada668914a9e21d0ed746d9b78ab4c264072949442a011265fae3af5e19bd3f84b62c8e6f3ba012386fce8a6f3fd4ac326d83cfaf632207bb0edd6b0312e4347033f3a9f5a52509957a8794a89b746405b93c3f3878ae7e9f83a8c05b036d48b74012f1066ba70d45589cee989c0307968ac785366bc7b7ae9ed8845d4160dce9300b0e9c6a9abf06140ed5c98563911ca7fe4476efe3424ec6ca73af8b2bf925766770b77c97350f033c7619d7141cccb0bf6e279f95ea78a1a6e10677e98be37ae397da54fd2e63b8fba8b95f001439cb2f62b554d4a8209e4bc2d1bca727d5545efa20a5e4dec8d39137a1f11a001477dbfc38133506f748cd8c3cd751a040809818847f56f8461b6c2e84d65050001484cfb3e349fd9303b0f8d494a2fd10271acc355457bc5952d95e6d07be4f3c036edd9fbf14c9d629cc719756c7ea0e66ed6d45fbae9ecff35b4065b22cfbd8b8f6f829730014ca23ad9692f8a4986ce85ab8705124f2b0b95a6d576d57243ad161b0420f550750d5493f0114d086b771b231a3100815eee0052eb14003bc9d64850451736880adcdb8811407653dd2ee2014da0518b4bf09f1dceb2c0175f4ff5fb3d5abb794d9a69ef09907df82e76a5f07194c65790214efe3fc11dec6c5e154909f6afd5e49539a249982e0b9390f0691a6d6b3906103cd3e797d164dfc291abb4463014eaf9642e2b3495a8c7c89821f7efb7e67742d56503f2feae9d652166ae4809fa778c6d0728281296020aaf15699002708c7c90cff2a1a1ce40048076134e15802167b4a1c42fb190ac5db60513da626f05b5708dc05b8bfbec27c2c4f73c2c33a0775ad2aa401168716486d3acb1ee9d944752c2e78c7f0ceed870dfcc45951d396989cc8ba5e07d52b08ee0b168a472024b240a354a9f70dac8802d21a68503ddeb5dfe2d1de2d497c79f030070da9921301169fb6e0f4a3a1b2708456943608680f0b0b5862b416cfc55202f4d66290b97a4e6c409016e50fbe479ae8bb1fbbcfae9ad81c517aa533e0375e78e49e6ab666d9c8721507acfc25790516f71bc7af56863d4a0cc51227eb6fb1790e4c5d2948f326dc3b7ac22ca43b4107c54bae040916f7d68017a6b45cfb7136bbaecdf4fa25138b69b8285eb249204daed40057054297c0fb1800ae68723181b847d15be7916b816232ca40fc6db7fa939f8b5101ba22c07d07ec6c83b6171827142ae6230a28d4611379e8812d300d50dd1a8e8bd46e52148ffbba389d1107370d22b5041851f70027a534390fa24c91594786c4a70b95236e2951cd9e2fb45bfff39a1307e7cd9f3d0218a8837325c21f2ec904eecff6c8df00b53e3009a0735e820fc24d6a7bea1f1503dd98538618b701e992f1656e3b15b452a9cdad7019c6a96affbd29eccd830b09fe05267107930c5f22071a16489a0e0a0721072008a6800e72e1de897364826365660e7145dcf3f4ae60074d0bc192051a2bc03ce4124044a898901d7b813c9b48238fe0ef37a9f274b98de06cba6725077bcad1090b1a377a9b78ee070252515321fa98bb7588988070fb3d01f56bcbc4b572fb5a71075f69d7ca011a47101848353a4240f127ab268ae8a916ad335f43973054b43a8eded5d7eb0e036f27bff21a4afdc4f78e2f635792d76780793755cb3a1fd44379ffeae625eaad8d6f561f07e64aa567071a610720461af1b6126d35825c1d5c9c91999bd7f14f6b96e6f0ffcc4e4e443e369e8d401a7151b6b18c0300af177ed016ee6b093c5acba17f317c6057e78c750edc9e7d03f8ee6bb61a876e9e4eae3495899f3d34f5303d983703f7ff370627b2817d878789ea4b3f03f19ae57f1a92c84ba22365eae39d327b9001e9ffaca2685cdc7a4c45181a7ee80e10be380766947050221a9be42205d10da44a60ccde7a415d8f94297ee099acf464509ab861bf9f035b074deec644ea1aa260ab602c72120147b8b1134f9bde8b41b4d72be38a2f66e353525d97ce55077d483995021aad3ce57f38029e7f37b7db4482b89549c1b488c3fe4bcf8695865e5562f91407327deb19081acaea18eedab464741a46a3e87e2ac4c65918593a097c8a9c85b12fee8a453d075c43ea49181afa7806c0bbebe9afe8277c5c8da4267773b456f4d338690a531bc716730d6d07e3a48099151afe1e21aee543c5357d8496ee9e39024cde862471ed53a862fd481b421b230407f5bd3c210d1c0e94e3388071b97f2b82f874b924b5fbb627f6ce00090924b81eb6c1c9f60507a89a54cc471c1539eea25b8210818470dedfed439660a0cf44f460ef7795ca1e160bfcdc3e07b97828a9021c37646849981c3fbc94d08b600f0edca4d27624cd7745a1f26011ee0c7c534d034b78ded81c3f1019c8f84359907566b30bbde63d5f1913ada4907b25b302ffd7b4e2b11bbab4419a1c4114e9cc64ae50fbcd0306a762a4c511711e9343fee07f7f6b360ecadfab3403ccc276401c44dbe4856a64a73191141f7cb9ad2a88819845067856b3cbb4f99d606d5c4c072a50a81a0d1c77881fcb6babed60d1d1239ee9bd293ba987cd7e50e928d50bd8c31b4e3d4f073a9d60bb031c7bf156b1bd807884042413a14ee6195d9d85f72717ee86343ab37377f48e010b2a28371318011c7c7cb048a45e3e92109ddd59e5238584b1a6afeaca4c1aa1e376c6e519f700074f4384ed011c83ba2a50bfa860812b6d839d65e98a96b9afabe7b13beb3d2670d1b0258b4707b3125354191cadb224965dfa9ed3260f1c4146f94518c0e36a711a245880326d53ab2ba83503f95634ef1cc47d42993336ff2919d8699275140f0d9d5c978fd59fc142204703db3c625907dbf3a5bb0c1ce8980b4497720a6aa58e6e12c2fc529defa7fdda3f880d1d4454b995d0ab6d072332c751031e27810cda44b3e548999f1ab2098b479e7eaed5b9195de90523a09f1b89a73607271468a8081e5d9e9d4284e1fefa143da813e80c24fe9a79dde878641641b4a535dfc3a06a001e774bf51e393f0c7b4cfd344d2dad557dd45de4fd12279d817abb86f621be0d07591b990d4a1e7983417334a3ed9f471725972784ca3580ad380ca7386ed1836d1264681e3c034114ba721e9a1775ef5cb2378d39161eea6f180472821d9443a6450c3c431780c6328353076e7310620d1efc95fb9d9fbf25a67c796f135e407e90a4d3b8c668b7254df3de869ab70a3407f2fd1a0b011efcee2721e7f97a70ab4695efe856a4e74eacf43ea1bde7d84929349271287807efb4d8f50920087a5a09b8c480e01419f013df638e4c81d8a82c7bf6fd90bb1e507764615c03a16b59ae201e1c76d3e8fc808f9d91f2015c144b7a0d93983c8028b78c9eb5947bc104081a5870282029d291359d610decb18494e71cb612700a3dc2c2252e1776d35c081c837f1c0710c4ba9302204c87db43f40138fcd3c3a789ebc2186a0928c935326b330da879f484c86f6007f86bec332c204de8eaec6a7d37903755b810a78872d3bb476b4c5b546a26e1613f49ba10120020715b3eadaeef6ce440d669232f428ba642fc71443e141073cf6c77b1216b1912f8c4fc20be1aa5f229bcb2a6bccef18dc6a3956cbfb9df6ce51c073ecb09b4a150646a07a709d4d70820d35a53919a01e6b757c7d5a48fbe1305a7cc2071204ca1196076ff0e5f9a45078eb14cb820221dbdcf5cb63ef5592c4d4007916f962f403347121e82a487533a322fc3c208075cdd97d22e2248bcf08996626921f4e1ee5f0b1b2eddb0130f57ef00c8cadac5f6965ff43607a447722a01226c21d4ecb97578de4a5e52cb7f4cad6a93812853358e810f0b8cb268eac02b07c79847fd25226d3a0b79a5bc1df28a940c9fa1114177a03e2ffb0f63063873d014fa25a20407fc835d5e2922773cd9835c561eed82bcbe8b20b2f12dd1180654d9fbe860c6e2ea512dcd1907e0b0d04d0522b94adc6ebbb0fc186b2cbddfc971ee5e8db07c07f4b7eae9634e916f921e331a24a41d22bf3ce677f8abd79a2f7f48d1a2787b12e0de6eb79b0575e748cf6077054b37038b924dd022d769321373b26913ffacec6bd5faaafa2b92228db068d65c7775dcb22e8f71032463e466240565970fcd595718af355d7337a63138c3f219383ff016b43bf0bd457a502403fe2bec722408618432585db2ca92f7135b52ab9e6aea473bfceea59437eaf61b733ce4550700f6a8821824256d53f1adad24c7e476204420fc10820c49079df533a372a505744b479e38002430480c91164aab686318b5aeb2b3e2ef303eb54515fc5ac4dab987fdd7302807799be7e0032465a38cc01c41321086a6469b5de6ddc50620fa80b03c5136e9d07c4f8236632a8bc32d246823b1a4fcb5aa469093444097cba5cb5af884590efa6fcef0af02a6d0e13607d86d7dc77724758327454f76f96560ccd6b4b61e079a43711ecd0efcee4ad9cda62ca88e5307d8dfca5b20248555fcbaf08e8c4f3aa1a762e20a7d2331352024c14166e1945f84dec8aa6907f9e8b5ee1c2499e176edff3a4e9682d11ed2ef6176d6837dfe57435ace7b315bcc6400600c07db5c2a7b0124bda94fb21ce461f9d8442bbfd854a5772d0e3678552817e185d86fe7121b5b073394915805264228b77afc51e72f6062031abe84ba9fbfa240da3161a0ea03974be20f186407d90e2c05022649a068657b43df567ad3e238be4f8f0c8d189c203b593af88fe66cf8795a21073bb7ebb50426578ac9c66e1767bdcee8d6d9ca678772cca76a333e338078a9f9bae2ae753d07d6b92697172668c26a9186badb43fc8030bcdc167d8a7bfb767a0f2a0d27218c6213884937037edd4abb2668f30067240749f198b3dac840cae4b06634808139dc4c1c6a503496183603031e90c96a26837ec1530e73759262e7c2bb2df33c6969a0a15692bb31aa893535fbc09f1ad6046234268da4e6e1d9e9f295788b89214ca7ce9cc4ddef63539982e77721227b0a9009070a79efeb0226906b2902dc913cb16565289bb3ee09ac7b9b51e13e91265dbd3ab5f03220340753514025aa26a670e158fd0ab18fd49f299b9cc2c512dcb9f6439c57597162c05f3b49305d077e7404320226a83b7e3c8cc0e5fd1f35110224c5b29917340308d0a6402c9d2681e5d81e4407a805a15d1426ad038928d46abab33de8cbc3e004bdd63e67a14a06e2f5d81be723bd6a5d150712ce516f0b26fa6a32f5ce2711df942f9eec382577f778b1ebddc2db47d92ec4e46a352422e2a9a1a728057461452b659ab5799d0ca3fdb6341f2cd6109d7bc68cd06655db3041627f07d700c74001280eed664834916d964a1aff1cf83ce8323cf9ec86ee23bb30c6e3d77a8caf2807482493521a281e7282ac8a46b4e47381817bd39f3bfed375f1376c08fa71f7fa3fbab1ab46076e10bdd509283a6bb18e4d8b8c4765a279eb620eff808fb00be90e7904bfc38ad206302e6b0776cfb7a502284c7bed7220e14ff4e6845db31c97a79344cce847e6afd746ee4137dbd3e8791a48088b2860b6464a949c2172599205cc39dff30798689a628a2181c4b90a60d12376070730ba6c0012287d7660f997a05553cf811a9af2e8a5cd4b40e3e848ef47068162dd1bec775f07a07541300828d50c15a11c4fd0d5026c364e3ded907b29967e85386ffb3a4cfea8063fb007079a824fe52228d6ea8b00716e3a7956116bf34f895adee40405c013640fef304cc3d9626e490028efe33bc99041eeb549e40f5291359774f2b2ac27b185c5fe1387086df0c40407de14af1e0228f4d5ef88d4b4bdbab0d4d49f8adbc48c6b551fcf8bb1d5142f60ef2376ec6907e302c180052a19309133a2d83ce34c3c9ce8f3c6f210ef911db1501cd5dbe52ca5ba12081007721d84f70b2a1f8aecf812b3e4446249ac00f0be4d72171d95555524292634a83f2fefec110304f3eeb72a4f976be69c634ef89b635dd0506c8219d94f7f42310262abe3376868d1a13d035e70fa702a6d2351f62e187557cfc62f16739f10adfb82e0abe65d80421f6be60d5c9469e6d2522d2a6f6c4982c19ad766b3bb71c95d91036dd498e882a50991f866d093b2f131190374e873852a9e875a9ee6678da9485b7ca99edeea628323ffded8448cedaf1915f6497f23070bf768ff012aae95e1b087f19d8b34c5da9052828a49c24d92600fd3d199d9adc455ff7a3d002aaeca4737a34cd70ed89799dd8e27d3a17c3116863ed6924b2a3d478775e3510788421053152aeaeebfc20c57a10b9e7aa9feb6630ca0426240af7211ca1e2490f90d39ee7507f888c544012c1162a2df37789eccdc3dff6fca2758000009ed16ceb4790179586bf546a310030bcffbca2c26803a36645ed55ad0dcac1f5a71917defcd9687b28f0eac2035c31f15413b07d6039e19372c277e567a46dd7ba8c3a721164fbb077f5ea192d49770bba3d534064a46f069033d3933432c31d5ebda1f709767c5e510d941affe8898366666b2f5d511ec9a69bfa1240a031649356f2c3a93efca5c34dd06d09e8b0a64ae834c9b7d274ce281663856ca55e11e440a002c44743c113b3958410527f58f0dad0c3275156f22eb9e97b97f980ae2ea426703d8297cf12c51b39fd6d28ba19e95254dc2f3bac601362aef9687c944b49a70d633aa5e11075f1407bd042c655369eb937c4eb26939822585b38bf06a3d09ea39b83cb45b253dad9bbe0a0300350bf82c691c539055aa9c5b0d410089ac42ab164c5787e0a5333107762ec01ceba25f07fa8d7649082c7bb8bb267325f8d780afb6b9f6a44ee38a8fc81edd896def4ea2f30d1eac6e077075096c102c95cf452cd50e5a766d6022e4397f130d861493ac3757a4ae1081ad0128442d0397cc36ac2ca4c0b21b1672f5522d72dd361e4f56dab800dd9a49057d5e1b7e1134bde133466bd9372cab61500dce1145b9926e89303bce78c2b74854a7cdffffb74af794395c4c1b078cef53b6092cab884fe75a7b20c0dc3eecc14eb86c2927e99290576bffcea8971aaf31de2207b8ad89a1012cacd3d9dd66df0cc22f57f819e51607aff68a4858d56ae172c80d1b2b90a635032d1c21412cdf2dea1a8a9f32031f5aa2796be61fca5ab81c60d54432cd3ada1e1cd0841e077311812f012ceece0e1b9b08ed8b01e290b331cca7c2f408bbd20096c9eb1f1b70db57ac05002cf08122de81133d93732dc81e4c9eaf0a913ff4e388855a0e63303b7b5b79620768b54a58032e00834617c24e3dbdf6e026869a3c8e5ee5a416d9bde4534c0bbd11bb8dfe4b07d60dbb25112e0938ea3c2e79b9c8ab05ab943561eab88c031d0f0ed5a97f5caa3f1a14cc3a076c072233172e0f20b198329f1ae895376b93ea6bd69eeef986fe8f2b0dca8e1724d8bd767607a6d885c7012e1481fc92ad18989a1b1e4d0d5cddd20b504a2d4983bd4ef7afd6688dbf3c71073d181be6102e1ecb0181f85d2eaa350460f3dcaaa4cb9bd71e0aa61d9e8c12c82fced7540656f93e602e7e2b2acb848469600945c5a62d04d7d785a9f31eace8d68ea5b0bceb05f9090775a602a8042e82bf611530573e376ee27e02eae4018cac43f3d2acf63bbc952d8d4e084e14074ebef23df22e8aa3e026d6d7ccc17742e1ca55fbd602581b9cabd989f2507781f52a6f894c0795c79c1d022e9465dc855b0c00f33e08e2fb10044a9b023152221523560617082ed93eda6ed65ba62a2ed591029d9e66caf29118e3ce6250c8c6a9a9f261ac405eae12af24bbc17e37079f95962a1d2eefcc68a716e58d9d5827761cb452b266cdbd3ca28dd77f91526cc49eec824e070933418c342efbbef20e2274d259234b88a180c2e1b3411feb5c3272213d93a39a604da32d072455934a02300592d215f0e9986f17462cb578ea9ea26e8d35b7725466f52792b98649ac6a077f7b088a0b300a751b8d6f3ceb3357e739263f693d8c44ac1196bfb3955e127a7ced5e1963037554aa4b301847c81b406b4ffc4e85d0b5ca142dbb67bf2ae6bb88826c3e430d4797a77d0765c4b3b30530401afcbd3fadc48f2bd192a36ed5583ce25ed09a0cdf20152edcfda1c4221803a748b9d3304843abcccd61d59a2a6f663e64da1120b9d55b4488b637f424b528226581646ac3faf6305d57f0aa4ee7596808a344536a4ee15a2ee9a8ea11f9be9d32d62c2c7e3f4c07ca91c70a01306f2e318f5d072f0290fef1ce6244ec26790e81bec06fdaa8f10d4a8af6860907dd831d690e30952288d81d0930698701d191a2d0b62b66cabf7696357c671a56cff7f72e242e4a502f30970782830997d6d085e5e7b6a3191c2c2cb1444d1a52c75bf37eb33b01aa5903134b384430b57eabe48c8f4727a033957f3584ae50bd84c292f46d0dc555dcce75fad82307996ca85d0530c64e5f4532374dee5fc5de9aeccfbcd8668d036b0863ce9fceb16d4a744f150770b5ac6f0730d08b6938f470204eccff9aca64af6c668ea31f281998ed58de3ac9d47c07700030f9600adea958cc944a778618cb6745a9f9f7af2db0b3e9b979f1f0be42282407954ace480432128073ea1333fd3ca2ea83dee74235928dc523ed4f0a1072ca12b50c74b428073973aea1113235c0de30790bec8ff96ac718f69990114d320fd23c00b808e2827087aa8c00077734a9adc2324d063f3c228acf645f2160a1aa611d69d0d31d66572af6d1b3c081e1055c0607ae353d5125329c7c6753087b7f2a60f5960ba8d859df80bf9b5f71e7e1d5897dfa330eb9120794224a530732a5d8cd3bf33c026b1871c1b8e892f2d7fce1f9f5b3e8d5dfe437d59c2cac5d07484b0f062132c99c8b1b42b3ee9c4486a4e94386734230fe6baf755d8b692a9497010da33f071ae205cb95342d3fb89fbf0dd2ebb22cd33c80ba37de136e106369d72464357854996c7547070e25766401344c78661c800a37fc7c333df0bfc72f470192ec0f71d9439636e6e8d69e0051071f322c1201344f31e55be887af4d3c850277f0523c6353c8250540ce8ba2a836346460d05707ea00b89001346e7071c9e1102f118d30b935b5d8c3677bb5e13974c12c62638329109cba45077ee37a1902346f12bf66d8fda9fe40a21f1fdbc2706537ec2c4ad9e661839c91e1185a9b7e4eb20b473472319cfff717c779ab5702b4a4f9e73ce6ba1dc7d5247d770a7b0d8665ee44036e298f9d347310c6c104312040aa3af199b2c7bd8cef723bffa2a2e3c67ff0ad4e41fa03078af7f63609347a1ccdeb266e3b3a1c3d29464016139b72a8bb6b9def9d5cec3ef17df480200babe5d358cb093481f2adb7e85610b3d40bda7fc8eba5e0e981663516b43f2e5f96e8a4a59d11463129af3484943414050c85c0c473ddb4d8e9f3fb38303b6218cfc7c44fe02de2410e2603824fddc334917ef1ef00684d513b6bb0ecde70669c946e962c5db4300d3347621640090e07625accfc0434963d102f823e6fe2c3e3a70406ce52b1eb53668a1b7571a6d67a9530fbc30e07de0f11bf3834c6ae6d30fd259524d82937c368c5d6721616da3ea1112180fc0cf24c91284646d44b6c34c72244ffa50bceb3081731207d6f46a60645a9ef349678a1b81a927006982c072cc3f9cb09360cef2b5ea654c8fae2b3725f1fbb1af10a4e7ce230dd8be020f57803c5293e0353f56aa5362a5b89a1ec7a69c1a3aa1f979b3065dd3c45020e20d5513e4362fd3c9ea92307957c2df7313632fb3c42252079d2a5b546c351d6c5ce8fb4e1799344648cc9b68dd402a70a03d22d0d5a3651a12a3f18ae48b98a909b7f62599e8af4f2c978a8e9bb86beb59df9debf49073aaa0ba0073651ee90c63bb349e33ae167d59baf69ebb1c3bde06f69d6f3621319ed03942e07d47ac42e483661b21f7bf6404bb33be88820afa74cee14a77240cc502acd352c3c23caa55007c4a85f62013686e707265467e977489caebc3ad195a86387da25ab63f44eda95d95d674c4907930adfde2c36870ea51d8fb7b3c42032ab4e206aa1295f1ed985bd00a8d70fbd999766a32a072bd3b6b50c36cea7dba2c31b384510219ba147aef442361927c30a8e897987c5f0066b412a0722ed70ce0736f97a91d2db41e820b3de291e89b2182ee8aad328674130856189f7388d600107827061adf0380329063444b0d709fe60a6bd0ee966c85ee1da8d62faf0bf33c58d8a15f93a07b603911c023805078f2eff99ec791088e0e2c01aa07706d6c704f5ca11f00cb6585dc511740709e5e741023837b09fddbca0e6eec4f78b72e8d64401c6fc90980f7733323e599f6e4de37907dd9a42043d3860f62dc3671b7e5fd4563db815f8807edda10ddf0d5b021b72e2392562070e0346a06c9b386eb4f04e4858a180897386562395a9bc82b80cadfe638829a55c22a2658603031cec3a6138c12ffa9f4ba64b16ea4954ab61968cf3c3fdae4e9aefe89aabf80fe5b3d37507aea4faca0138cb16841924ff4a927ecc4a82c4ab169d2901d53918803ae0f33bd259882b0f0a4c71ec38d758dd0763c9c1e343c8cb52fb6c18bf43e0e30cc4bf7dafe39a79735cfe73038ade4e7b38d7a91a3d519095425cad06d03a89046ed4b46182859cd67ee3d9aa3cb1a431071a0c4ff12538e001ff0d4d412ea272f09c2bb657cbf3986bf42e83fdf2d16923f2f3d7d9710773261e52033a259f46ff5ae44ef6c280081eb62d09909c8c5db96b29c9c084da3994a4b12b0363d3fd463a355243720f2d2c7b4735dae74c80ae2b92bc12264f8adf3d111ce63447af7cb67241263a3a84e123fd0db3cad5426e753e05cc18b2078301f53c428ae6300f83bede740711197457073a43cc106a59c756ce531b924b4891775c90b05dfd22652922d1f79659b65234072cab3f32013a442610baa0667554d39a546094c75abda7a19101e7a87af29cebba4d4cc76f07d8aa25d3333a9430d4210bd562409508180a793cd5b2eb6ccbf1a2323a8a2154045cad8d770363bbde843a9c77816c2b0e133a447c87b2d30ebe409744996bdf8ac1d07cf57e5e38c44c076dc5e4470f3ab2f2c4d04cc6a333df792b045b160e4e1b519f201ba652ce54c18edbcd627c0731fa43a5013ada64107fad9f2fb448906de2e6113d0ef2b8c7cf6d90d702f73018f1ea9e260bc68c33482b013aee1e61163eb682fd4ebadaaccf81a12412f34236ee2d10f06b378d35b7e72807d9d57db2043af643813f618c423f3dec6154450d07306e24697b87cd07a13274b20b0ad711073d9a21b20d3c084f4104f7aabedc47951339d13c9922daf32e6f23bcb8545a3d0b0a48aa0a07500d1f28773c359a19b65b37f7e36b8a7d9d8fc9778a06a71e4811445bf9107e7f3cb19b1107b4e60966023c3be6871711210763eeca24a2adfa7bbc50b692a5f62b910173742ab6aa10570742cb01f27b3c802ebda6e754628d866274f40edd95fe96ac1dd8a9a4f139df6ec6ee75905f07459eed94013ca6ad77cb202293196f223e6e9b3e46792679affbf9fbeaa058158d71b5cc1807795ea814113cb5fcbd98382b223d807914fc9c39669d9f17e1655f39da1b71b01fe20ddb0c07a21023f10a3cb60bfa1955939e51043225a2fc0da3e455d8ee5f455d5f899264f28ff9804607f574189c133cc650149b9de026b1377562edfab538b5d1b3d1bc769f6045700f3e5a33c7080b5f30aeca32053cd44d693d6838b42a2b90e87b29ea51679e36f13cc542bce56ba94f3bc3234d079c1dd4aa013cdcba555a348ffb887c3d5d3d1121390b6eed0bbacdae1bd9984a16c8ca650307ec183d89163ce51dceb8f36ef19cee2b2def8f7c22e73c761b2a400ae9111a34ff5815673e0749764489053ce65aeb11e9931a63ecbfece3062e4f897f50c69ea02230632f1cf7f121c32103b039d97d3e0b5539d203997b4567ea872c6244165b27a4248c0ca58eb73d1d15adbc6230003e4135adc6e2a3bf0ea9070ae0f50730a22adc3099748b342f21418e037ab90a03b2c3c0433e4534e0d679a1913f88a8f514f4564260839986f6be465530955dab4efda148070bfaa6410d3e665a668a0e297482e8e096242aa253b44f00629155c336f3a2ebab30ac6c2a07d564aa39023e6795fe12a5c3538e62d014bb00e90311ef247a690eacfe2555641524fcf4550720b650e1043e73221f8ffb12188c961e2c72671ddea54f83adcc0fd5836ac83da250b8e6460768aa1ec8013e76bfb4608437eca1a869ad9bb21b0838ad7f5ece4fb9b8ee069cfdcdfc5e03070a230af1253e77c9c4c59bc4fceca8ad65d00e98aca1adc8184f33266fb665462b0120096107f0f97759443e8bb0296946cb24ddf14e4dcb3a88e50d3c3e3fa53c163dbd34a86c25e8854db69d97f23e942915fb7c931baab8c9fc72149922ea2c4ec6acbc66329ac344e1c3d7bf0e07ffbe6ba22e3ea16c31dcee7ba5da3df2d69056b7c08f43951372c40b4e3cb405b5f80def480736fd41ae023ea27344baf4760b2746f767e945047d07b9378858fea2bb9d5d8355fd07d51107f563638b023ec7e69f959cdc6dceb85d9382cd97233b52e451e832b9c085c151580bc0515c036eba22403ecd3086cd4fe022ad82193118dbe0eabbea568725f80bda911f588f71a82063038073ba533edcea1461034377867630e2ab896bcfdb51df4cae284fe8e1c444f0d2e0f9460b7cef3a06d5013ee5485ced88ee90b7ad13d7c0a730d589f60de0f0b13ff7aaf974237f0bd25407a64463b7153ef59a1335507299bf3504d773d615f7eda129e60f630f19219718bd4a9e923303cc9f06413efd673191b0235ee2e63885549c390639289bb263a7019f9d46fb149986d709072d32ca5a014008c76c7c66805cad081a6009ec0869456436c8c76a7df2a99662029e966b7903c3f1244140193cfe13afebbb972bfd2a9ec16b22370fd17906110227f9274c9c970d1b320758d88f28be40195cd99dd10a40100d17cfd444cec5369452bd491521c40169417811b9585a07f0c27ee102402738c05974cb813ece6cbf2ced0ebed273249d527f4f832428e82505c8246b0bda10922401114032b8c5e348a1668c9c931fd9a874f7e1a71467a91b17283a33c96e7bbea21e072991525502403ab564ca8f85cbc5cab702b64cf2859666a91ee4b24d097d9283cb8ce3e61103cda5297f404bf5c7855c95e337e93b35adb5501ab759aab10c5d8331c2afdf797a7c2a4707e7888d7001405438a58402a02f3bf3149ef2009fe7257d65cfada81a336ef6dc24c228ae3703a3dc1de4407bda5474aa8bfcbee93274865ede805e343526327dd01fba52c6ee06b4e85a004087fe41a903236e2995ed0f62613b19d4a7b63bafedd357b42fa4c5f947801b004089d389eba6c1444b7e0ddfc0c78cde0da47f0878a7e4d0cb0e98a19a5c40460379f6aab0408f34659f4ca567603ab2489b938a1aa43d71d86513ab9cee9d1890cc2e251c070d22a3a60d408f3979f4c92351940708e415d1e1068d4bf166704b01e598155f3cfa5fac1d07fdb0bb5b044094fd5941e45d5adf806a7009ee56a09ba07a023e54d455d85dae62359e6632070a6690350c40ac496d0c540004030e671246500ecd52ecf5069e7da1fc7e6c4f731840892e0371643c7a40aee7e75bfbe0a27d9517df65a68b68525f0f7b15adaca22688476448712459078e17c4350240bec8edb3fc817f5a7d7a6f1f72301265a9004a06d07913567e24691187c53307ce844c251440e5eeebd71ccad0c70f205907e78bffb68d87fd47d525aacce02ba3db0d6e0e07346a0e6203421481667aee4299eb04d5e59970150dc3c1577acf16768a81833c579871c6660354d1c58f42388415029585b4801f94aa8df17a70629bf88066f945b3d1cc1ccccdc21110004268a77690ed5a94c2fced9fb5ddb222f1ca057a90139531d4b5f1d55bec326b004269a22950c3ea1b7f234ad22a9feb8b59febf05918c20b7734442970ea45529a661a3304272465054cb2f089ecb06be5aee85ab974218b91f30af5418c1fbe25953d24a0748ff6ed1174277fd0c0ab50eca42f574c3460cbeab019658e6e612133c2a1328397194ac5f078c22bc770242a663f515d0f07cd4a88c5bbda817062f8d1f0be1132ce45882bc459d65ed070711604aea0242ab278e364feed2691b56df3075ea6ef2ca9006adac6dd5b3ee071d2c200c1d077d9a6107ad42c8ccaece3622b83bae828e752da0535a621b2b493fdc0af00053f94b90bb0907be8de2cd0142f2b85966df4c409bca601b4dec3a41455a29172ef235f8502eee8751508c4d0798b9e79e074404437265f0d4156c6f7547e72d9437db6fdfb7c76d05e929e93fabe020797a07bc18db902644232998de75e0498a88884b3f9620ec064cb1c5be71d7ddf61340d4d892600a0be17b55ab370144382fa1cbdb275c8769c865db2c87999c69c3887fec3b0dc82dc85774476252072beabf05074495d4cf7660108733f5a61a25e749fea35c288ada54d9acca9c21eb06216d4d07462b4f660244a21c472903a02c36be32d7a7bfb70826ae48c87718fa7506e69cd104077a32071b8cc22e0144bbf466ae92820db50cc41429a0fb01811d8d8a0e43820b211102868530b32003890af36444c2010d0331fa4cfd1bc666f2cfa4d59896f3702d3a2c104e9f80eb98348a5003483fc08044c96b0cc4f6220fcafd221cdd0058639adab8237db675efbf238ffa6793a443073b8969d41044d918a4d07e9ac8b5cffe61c4dbff176988b760b5e5857da8d8b281d5ea554607f770e8f50544ecc36c9925e52e677157528603ee81a225d812c79bbf9b4c5f9dec9a6da7060044efee6dc8778a8d9b0afd809ba94c2260e60d63bd0a2fb9fa6b24a1ff91203b076a73f32b044654208b557ec11ca5f183b64e0579c895bc3f8a36070d3fc84725aa7f8ccf010706249a0e0546653d588f0b572c35c5a2078429f82d6e9dcee72f19043fe7ae66b40727924dc20b965b466bed807b0288d31dcb68147d3fd4e3297c83a741d895e0c13cd75056edf07d03123be86146bf2f06d0dc68739d46b702ca0607fc373954e680b25f9bed516cc3548142330718357ada0946e82d73ff7957c83b3e586204d250f4c13f2d97a933eadcd11c24f539b6fe59033bb0c29846edd725897970b80fa41264917f06f5e9c9f3a4330d6fa0f4b3fea19440e75307dbbee55b0e46ee827105f15a4174facc1b49c931d78fb12a76b9d885aa319506a9d3e45f3c03f8799440481e5d122a75c551943ee9a736ed75a194dd7de1745beb003eb789098d0d34560704b4fd180c4840eca3513740dc9dd8d1d6b12bb6f47285dda60123cebed3e292116f12687307589395fa014851d05030390fdc2f95192b10ee3f7698fb70418de82cbda191da401879096107ffe1f94b0e485516c42feec2f015e18e29460966098e39c5c743687e3d215604f9d017db2307ec7cde5709487aa0881bf63487c645726dbcd2060452319efadc428d7da9f275e6e3842f2d0b0d106d7f600448952212fae20d8f83a943b2f7c2177f8351ff1d15e2a95789f5fb421d93ee5407a3c7de3c0248a08dcfbdaf366b6e0bebce60f4716278d27c6a4c97d6cf5ed5847dead8c93a078ece03c01348acedf6e172699a0ee73e66bd9a20f50928cee56753f07c31d3cb9e081e0f4b004a049b22692a90fb9055cd3bab6e0b18f6449655f1c4233fa1968f073417454d0b061eb51564134a22e760663744eda4e8941ff326250a9fdcb6ff22b4667567e0c71da13a98620701c78412074a394584a059665f8a5245c6727b139a4f5bd1ae30d898d4f30f30b80068893103177e92404a54e4ba9e39e0214ee9ab930b5ee31b4c0e4e5104ba5b9dc8b1f32b3dfa0f7846775c584a6a55fc2322763c82c9d65f374521755ad7b04e033f3ffe6cb39b769b1c654007b346f3e2014a89fa484315e1655c9f794033727c9501ffc179f5adf925bbead21426a31e00070eae89a9014a8b99bc7a198240aeed523e42e65a3863b3819ff922845b4876e2f7db7eb05303d4b775694ab029b3c6d75a8127740cb306b73033473630ea1bb6e75cde6d9283c97fac5f0349949d414af888b692f895c6aee1bf3d61a4bf76a1cb60da62d65bf05f318352f7232d78031b91aa514c4c40c56b47d4cd066439ce0e9a2ed29bc07a7ee37d1e78ff80657344f0e13d078696c8830b4c60275489fce4f42da6324f1ee02c70bf0058e99960762423e1e4a755b4c14407e91a7ba5304c7029b93ab68160948d1d5af3d2d69028444c7ff6f0d2b0e7939a8dc7e6815907722caf2d014c85f98e67fd3290ceb03c43506bbcf1d7babbd35760ce1fe1d394ebabc8e67c030205ce7a4caeccdb118b104f9ef4f69e4bcadee4bb3da0fe2098bbf8653c8637cff9ed1607cad10784164cb66011314a781c5533198e69fa81e6203a12dbb2bebd873c3b4895505a867503e36eca834cb7d39e776159c4e2c0a128ef4644004887b95a11980708344e038f0ec81b4c0740d201e0534cc19872df6e77a253e0b6f2f3c91bc61e1037f480ccf05ffdf709605908882b004cc57e011073dc540c2845d7116ad447c290b3bddfa75b159903cb50de95a16a071b5f1bb6024cdda11c59cce104ade9b1486db864d53733a3542bb2edd2e9e9a03c7e00d24603794693c14cf1104fb02a184cbd60d19d4c6d705d40f2c938044fb59a5beda2617f1e6e27075faaa452144cf9e7cbc673104848f2cc2e4ef8f75cb6f0473df721442c083dcd5e8e9e8209070cd8b892144e0cd81c144e53df1c46aec8cc5b03e8f4d2b682576a2aa11b1b1549a69c544107a85b175a454e5ccaeea856f1213ba30d6f90c86ad322a555ccb840ece830a61d04cd6b094b0b6aa250d62c064e6a7dc8329d3d6439aa6f10ba830674c00b51b0bd54447f75d5c50da670034d072b475c37054e7f97928819c8a2cb66dffeac0016c89246ce3d3b51c2363767d7f665a63d49aabc0da44e891fc7fb2dd7011466e0d603227c3e9ab8b3b11efbd53a987c71cdb5a45d79070e3cdf87014e9c3794c3bdfd47e205abcf688ddafdb3856207aeb3f77a9498c2ea78c0903f005007f1af3fe56814ced32c3b138b73a6485077751e7d265ef5449fdaa2c379160788bd0246015009cd4db5e65c7b2bce691087539e9df32f3295e9317dc07edb61622081912c07fd102c0f015033efc8845ac9026a5950016d950b03011c48de8bfad331f498776718e7fe420050364d8a930b8250ad38f913e218c3f211e4a99b36628948e5263c37b8e8aa3f07d7815c5743504db98b3e1a8100cfc06f35454b3992b3278f9845f8a8e9340aac157469ff060780419bd9815059e87856c3492f0754b37d485a4ea55899bce0d176f2798e1b31e8ac3cd15e078b927c8d2c505daf926f9f392d6d52581e959113e4cf5c16621671bbc1509e60c715363a3003ddba9850507981a87fa200c37c37221a81354f735fa8d23c2043f4205364a69406702f47072bd4f8920250b84461647fe655d7da55f2c09b2bf81fd0c0273fd9495defd4ff858bd27e1b07f841f2430450c6659e8243b5c161bcf3009c02d9ab70593310bde75c50c296d4e79cc888770321d1555350c7ceef18a199b457b83c9170262eec40d6c4f93313c866a2b46406d490a6750050cb3cbfb459e8200e2af1103dcd8f719ec6474a53f098c5f09a08d98b22f811bac2dbfd50cd0a3cb9acb03bc0ae9a70a68a1f8a5e1c6c818831e9f1d5d98d9cf0f3be21034aa82dce50e430caea1698073344997f521e0108a573962b69a1869ae797d797e96224320305a43cbb5222cb7390dad0828096c4400a792cb3389f011b117663d437e46450cbd8937c07543d95c10a5230766697a1b83451e462b07ed1109dc48e2ad51a87a96d0e4997d87034cd07eaa055dd5287fc24514674502209934889f01ac9aca4b49042f2402955c27ea5816ab24c0b0b80cb9bfe23528978c6d0c913b98fa9e9732320378f7b89e5273254035c2cb4702624ed3b66f203d9af52a738719808e76900bb5cc0e478978f08c8a64931149489f73d904a08369454077cc52be03352b1038d7347daf35df4116b612129ecc2d6c790740b614515aae18b12fe796907ad298b650552d5e981038623bfe728b5a7713aef946d74d728e06548a6dbd07eea6ade4d2c07bfb5b55d0252dd25ab878ea3064c56f453ba928dd04b7d10cf8fde39d6792d2e3c3f4b365207eb0d824d1e52ef42975a9ec36a1127c8f95c8c120d1c154971288e74907ce22114578c3969032cd6539d52fd564beb122d3210f7a29029a58bfbe69a57eb6da8c451eb36d06e1e5b925807ffa501b825542f14ab903f423c284c12c4efafce514555aeeed1268977d0c5156e4220177e0750671aed04544583bc9da7f231236a8e2cf87116cd24e1a8e744de5451e548a15e5a1a3f460385a453cb545b38e13d3f5d54c93143dc64c63da052619695d124b1c0519fad6ee8fb4d379aa0f5fd547c6cf51e8b3e7058410d562ffe162cc08caac88be3060369b37e301721135703bc486e4b5480ea69cb80ed0d8f3b0bd895e4950128cce2b072f0b582569d36d76223127307c5027ddd0454a4d518612c24519026b1d69893dee882dad702586f20d231ff81931f58f05c0054a693d1d0925f3ffbb6acd93d5eca9d6f11a5bf2c69cad8d5c3109f712b227003b19d244c54b7baa473fbc930a9d5c488843d726663affab17095b6d7dd5542d3fc5cc839071d3c71ec0354e9f614e6edbfc1154528ff5841ee43b3d3ab91a0c20ca75f9eb2dd61f2422b0723a2034327560dd5c8f0a4ecbd33e678eda55dd92ad83cf43d19a8ddf136c02f2aaeb0fc1a0365d60fc05630aabce3860a087bc7e3e82f2390b69b0aa97382df514e18698573e6bb821007d6c6398c0256409fb535f4c462eba467835ed69e3b274fa3e134ba60639849bde4dc5f142e078cdfeafc0d565911f56d3d553e0672865b69cdf74cf9976adceef19e192331d177fea5062c077ddad056dd565df06bcae25dc8f73441b268402dc2e853a4f38d11a229173f338c54f9ce5c0372ad2b4156716f054420619030033135192e742854f3217008da0ff1722b621505f18e0407a6126c4e1956a86f5e9342e1e28fbc4064bd54e195a524bab93b185934554aaa02a271664403e9ed7bfd56ac26481faf91515ee53efde42b56378d30413f32e88879d9b801a5cde06e21076635d72d1f56f6906f41d8bf1bd3b5c28141c9f653802f8b814012c39c2c941d37aa17972e07dbbdf9660156fd753c4fe8b00cd4e95d30a714961b5e804f1bc5ffaef902c434d4c143085e0706ec27ed1e5801bcc1fb492dcdd4ecbc0ee032ba2cecac4a007cbed54f02f328f7cc22fd1203c2ab637058035ec293db76bc806c5bf62f0df398d00493fbe6a91a6b1874569fbd57995203eb58aec158165701f2a425294374cca34a3e7d62a01a397ea1cf25ac995d323291ff380b03d32fa6f3581cfe14721e613a42ce35d05bae480a8f6151b227f8d8e68f780449692c621807033dd681045829b1425cd27a0b1776bb8449c0beef7fe588fef271701ea20c05315054d82e074fe938ea02584ee4f0e719007f7de97e8eba7413410ba9ba4ee298549006f7485fbfef282626a292215871ace7b04debff8977708dd9104f7d330d400004d28bd9855ea14095da3203079ab7edc4015898be30cd1aecf7c9c2e59de74e33ce8056a31241efd8909354f8836e7fe96407f0acb74609589cd223d13310792295eacfe8490c629666442fcdf8959a545423a0aff0851c0796fd46d00858b1304cf7e833796d230e091903781f168adf6895712064984ecba2d2f4272507b4b52a460158b71a715ca8f7fc9ec51e9c571ca7466e4cb49fc40a666bb32c977e1d89be67aaab0a825a673f53d1f16c1647c56ac5452059de1dcd126cdbf3215421aa36c3e9fed53f078214c54d085a7979e404716f958869d20e23263322a1dd032a53ed53f39c45975e69c5de260318cef69b5aaf25b7aedf17d58544af5b8f98eb0bb02be156d362cfe3739d1bb2a3c7aa0207eb2e3235055ab24b577cf3232fae075a25ba002506db47123957f4724ce33670e5f077fc500772855dc7025ac09153ebf4beba4ba7a8eca2d75187e87c82a9d8b5103a72dadd193ca3be6e070b1028cb075adb28debf0dd231caa380106140a16efa1fdd728cdcc7883d3f76da0ea1a114077434662d045ae7d38b570927f446f73398c1b3f638767524faa4559dcad895fcb084f44200823f082e5c334327c6a4d93f07d90ab6a24886513f91964019774d945bdb63c7397f6c12074e9751bf065c33fd484137ef2640600994bb714e871d75b5e16d0d546586861563bbc83d3c071c07d909025c3aec83a0a52740cb7fe5475f0f6be021ab4b620db454c56b9ba85e65a7916f03a8f71e865c40c346afecfb3b995d1350e5ad06b813aa029afac5693727ff3fa6c6d6aa060744691ba9045c45bcb183c8d1ccd7272072a6a3da7071f1d24e303fbe568292651cdb655b6c0796a7e841015c46cd573d2be1f30870f3860d97fbcdd20d10cc5218d2e0c62b649b26fe965e0306119b4a5c670487b4969648c511d81d54cc6bf4a7578788003b33447a42db4938f0812dd20caea05c70d4ed6e503f6ee1ad7ad0c052019f7442f8fa434f66110f037144e9ebb2290705648b62155ca29a72848e5fc9fe76558fe05b08c6a1329982748637bec3423c673903fc0d073a487a80105cae76a175aaee2520cfcaa894397b66f54e485e8ade8225190f3dea3542675a07d243fc00065cbd7e348982240ce3a8541699d660d4511b426bed957ee34279f931625625119e19382d5cc083dcb7d9df0213fd3d4a6b3a3cd0b21930330790fa61a440f46335699e3103abc6f7f15cd2c4f0efcebb7426f3d024e21ecdaa58f95b26756f86362a2e86b094c6c64607bf2b76280a5ceb1f22475bbd36d038ae44f40a5d6705677a60ad530e1230defcb3b852da3707ff238c03025cfc01b088ecceb8005786983ed5066f6c8a315a576113a323eb7db8b5207345072160a713d25e15e695b6fb6e4ae433e20450d16edc227ecbd50582c17846333934619e2a607e6cd5fe5e2447234d5c3f0fc261da1e968153afee85b3c295c9a1dcd0a902d676614e5c7aa8415b5e3df36d50c86e20056975f60b914ce429871021ac205d60a96cea8820e7990903946dad605e46af8027477a135b39381f31ea80dd7859568290cb4eb6f2d2132c1442fe5307b9938d660a5e55d6c83972c1fb5c11abc88b846fbd60d49f05695ebb1092fb88d187df9b0e07f5992fbe045e817a7bb05aadc235a8c186f603f7ac7c70d1b2555ee0b7ce9f0439f4dacd130727bfe5bb135ea8a22bbd595f467ecb3453d399fa7da7719566426b6b96e9769e187743224807985ed283025ed2e42c47b909f5f9a3ddd55f5b398ea58f760b000e829d6cbdb13a9c67c26b2aa33bce5ee7386696aa867a915cd971730dee88396bdcf6076085d69a6916ae7150460b5a22fc56600dc87269d2754ec5bad25400a31ca6af066575ecff323978b6b03a1041e62a0712dea813146068bf07fedd682e7f3b54dc7adbdf58e0b1c6018d2794bf4517fb03b0b9c43c07358cd9b314606ccc0e6284b3fbffefb446153209c58b9dd78e81479abb81c5564d6d9a8e2600609addff2fa38c9d5e19d3d52fbfbd75266283da907bc42d14eaf2189011df2f077e4e30050160c06388a17a7c353f57b2d1cbcec717fb7f76f3208ae592f02d591fe0d6f87c037c7d294060c090469e53e1ab94da016f925975da9dd7a6792da414c29a16e63502fd777e0b02640199441960d09b4a1b8cd7a0edff55d4e54f991f94b65baeb3a4e4ddf8934750dbd418220793f8ed2a0160d7abec5bf14e6b005e54d660c03c22f61399a333b6884a8b8e84b4e2eb5a53033e53eb9960d84cf735cb62bccbefac6c069eeb64344d52c64a2081fa2fcef4b90e8e7f5a038bd067d560dc194ada73aadebdb243140ada830c40cd31817a394269bd82e6121580eb7c071c87e808016209ff6dcc430374137de728037ada76fa1ad350547f7bdbe4cf24e822562003037255e181620a30f84a2bfb781a380841591551e33e9219cc7fcfbbcecf9c6023bb25087407bfc558f804620dc510a725d25c6dac1147f34322aa19a97c8939229a30c15378b5904dd80a03fca641f9622075ec57dc809888a7aa3fe5a7ecb22fae8c7793f8cdd2f168a018c1006c3b07e06342dd0462281e7ec74ee8d53e3e86232f386c17e2e93b77fc8ab7e5b0fb99230b6691250721f34c3e0d623564f33892c9a267b502ef6e3ceecfd03aefcd3f66473a32909b7dd6f2c636078de2d0400162645161b109a12d6ec83eefc92d9722df307459d79bf1ecedec278f7072b63607a340106f0162a90e436645fe28a67d4ca4f6729afa7953762543ffc323ceb8679fcffbb36c0761135e950562b264847272acdd7e185c98fe4bfbb89f5911825e1ecad33898d5721538373ec6b3bf2162c635d0cf69fc32db3805187f82dae45081d8594aac8bd37a7334b11c11af3a1eff9edc62c6e62fb2b249a2c318fe272731714fe9c52486c9e9b3cbcb73d130786ed8700790e7bb6b0162db9aa5e44940040fca556ff2a34abecd2ad1bb64d5fcb03356df3a5332545d03aebefabb640da4bf84866aef78c3e8fd3b5f493e53e01d3bb724bbc875cb2dab2b322d6a0064110af7f80f8149419f46cec49f36260bbdc7eb02590325b3fd1d754330d17b070dba18e309642dbc29da1d8dcf117d07d7fdc29b16d044c8fd41f3b9076bf83f276199723c07e85ffe9e026444f7e79b8c53900aaa24c3b564a7077f92afcf94fc0b35f70d43172d1be218079e6fa0ff0b644ef6efaf3767834418682956a559131cb8a27d278a2436ab8d000ff810813b00644fc9749a40e1075f0f33c43de7f5c98a876296f5b0cfbf28ea059fcf3cb64a075d9ec3c60564503372e3cc02e425fb4352f440a7fd656d1291d7e90f640002228c930ead6903cc48ca6664516643df2ade80f7eb236b86c6823a948284ff9a212b0968f55d057afe453307bf1c540601645e57646d922a07d72a2282c219719f29cd99ba77a2dcb0a1ab85d02a0dc504036a91eeae64827abc49eab0de1ec1c702fa23b290329726e2e0c26405733cb211e2d22678006493027161fed9653900391b5a2a6ee29be81f85700250d36ac7c1f2d0609d71076a3eacb203649ce5810f02d1a6b7f257ff482c05dec9f5a1c6a9900a32b82da6d15269773d077d31c5e901649fca72be9dffebe3537ab39e8910fa7d7e4388fecbe907841a23a90c432f3ff6a9a3f064b92cfbbb6e79000a92af05693ca41c19596b920a19a5c546910698365c221eaee74cc86607616ed45a1ba992efa5775337ee9a2c1fb8ed50969ffe49b17dc03fab513207b49993fa01661cbecbf20c9406fa36a8f627de635a96a5e19de8cc674c95146dc57cf12e500729abc18206661e30fdbe228a9c46a2f716be639b6414ed37a89909793930a8c3ff6b451c7b00662ceb0f5e8a08ab98916e9946d380a5aa19eb5a76b307a324d88ce38c249e3807dc08591a01662de6946796b86339f0e40c0b2a8c335ce2407cd6159ad5ebaca69ff09da85907c152ca2e036636d73a5aa4e77d5e216f399e4fee2e3c1e2246bb1f0b9e90af27538f7f1a774ee92cfc663baa5ff2b9286319b9e1135aa016ea37d07f9c18172d8e0e6b9bb9669df40203903087af6651cbf6e56902dd458803ed89d86498887a49b022f2769fdf210827a6e52e6307cd1c59fa0466575a595dc3b0d3cad02ad11fba60e08fb09523bf22c8cf9f4b7664744b0e190367d82cf86657e3e9088a2949b9cff13a2dbd27c792540810d738eec2c332ff6b53f7d758eac513d76671798ade9805aa31779f1b3089b7fca7a79f610cd10f16e7087b9996df493a07f34d52f0186675900464e47c29c53c6844bf104fe518c235afff8ef9ce2f24ec7c00b0a203aa0962f56678ca4a9c9d788fea5ff1b3b13308327f235ac1dcf695ec7f763148b03b403407909644a2186680833af1b3a6dc285185c71a4efb26e3ac9ae5fccabe451e9ec1e0c23879130764e21ac80566aab53fddc132cb6f09f536831f8f837e53a6be66163bf1e71a5015c345ac1107cc6fb0be0766bd9f90359c9b2c6fda8f756743d68b2d60c9bcc066c8efc17ff7ead894dc3d076b88c82e0166becdacddd9487d3697c1f052b64df3744ff0ab74700ad9ed2b897ca73c7d134aea496166c08d34e39729b4f7fbd041e91ba8824822f0cf9770a30cc60d91206e458476076af9a89d0666e9207cab94a910382688e05ae096cc87e15ee88cd5061332647bc53b0eed0a07fb7302fa05682171b99712b5705655f806b3222756244cf875ed9efb0fd6067b2a44dfdc3f7ea15128683991388de2e6c6fcae9aaf54a078e69eebeb0b8496f701f5a79af56a5dea5a07414b96d7056859988a43df120dd6546f80d9ab7ba44572a9ae752065dc4834af6800b6a25107f5ffdde7166865ef11caae648fcda68ef9c33ec370202d3a1c29b032d3b42847f032ebe161033ef77e99686c40c680eda200235e0c84e204c2807f8a9b62d135dbae023c355918310201074bc3d521026874b923f21fbff0c0bef17f5c6ee99602bedd8ad6bc2a7c13d36a80e7ec6a540bee6489bd4502688670686d9d58ba8cf536e96e01081bc7543d5d1ca355739782a253378c8475072a33161a056895d66d23ca2d233f62b8b43796150c614f5286cc7d7dff2c693ae8ac08723e079c12150e176a2a80b5a24c7f2f0a969f6e2e87592bbc772ac99be70f0ed38889d9c2331e5807c17fa04d016a40e58c3e45bfef6d375f0a4870582f3019248e0a6f0fdd3e7cfe86c66e4c5c034fefa4f66a4646c5f470527540b36edb0adcbd341afb222a9cffbee2463a66f493faa11f07dce4d021036a601d8eefacab09e81d53c08ed1cdca43c75afcf7617517a085a932a6c8ad0107281decf7046a6036770ec1f6843d21df8fb3e2fb5139c04da954798db1b6f5ba33f651ba47079686c574096a9d4da770040fc24918c6b1081758582337d7442d93b14734d6f2cb2b0c1d76077c89914c0f6ab7710695633d03bedd52a7f7dc240a9c76241d0e56c24cbae7f0a73939c02c076ea398dc046ac49b9b62aadd17c778b29663ce59c72c1cea586b973b3124296dda4de5e05e030b074ef66c0a485ce451ae8e993b225494ecc825479bdd1a52428d05df5dc9593d9bf277070c77cf7c016c24e373a3874d0bab4b6c0f82621f78523a63b68363ba7407c1ad9d80c5631e079b6a29a16f6c46ce6d42ffd1cfe5f2c823a36d0ef5ae50c41558fea5d25bc85d9f66cea244006c71cecf5d149d672f18608c2e6c0aebeb9d339d14c21a05b2b1f0241e515b49006caa90cfedc03549b7a8d5a886b6cc355a5290f1d1c4b4e3ab30e6192c757c4d006cade28f8c243e220a3d7e074b3dfa36baa5d53b0cd52dd1b7fe3245e4fe5e080784478ebd096cd69f793175c2ea9efb917d9c02a6bd3844c81475cc6a62ca449fd4fa67ab65d6147a946cd84642f80108f05cbe28e807ad79736d44be105c1f505436cee3745cb15a7d22b9e79f6cf80fe8b2164b50489d31ee533e18db5108b836825001c96befe271e43f623307076cf49f046e0056d07d2d2c43cacc4d6f8faf6ed336ae6ecacb6b5d777333d804a983596f0387a1f36a6e3387e6cad4b4149ddef8994662c289b1717b202bdd1f5a17473f4a154e3c7e0775c567d8026e4f18cb68d49caf2f34bcde8dd78f6edb72606d3d15bfd9f98d7e86700ad56a073a0fb5fa2c6e51064efc702c959e21d865062fb0627fa54149dca90703862a747476859d7c07fd9122350c6e55e1436c38b4493671d8ca749e91975f3a89a8ccc23835dba49162fcf88a070b701f22370d016e773ace983297fe8281f39ea8eebef51cfe062539b56baa987cfe3eb2d62f0907bf8e50410a6e7c6cf7a358f5b1adcc7025c633fae7f7e0c3fb48bb99c335e932f4c75a2236006e8916d88e2bd3ce8e77f4183719496d72b9a660cd5ed22ac654877b016b130607d89722a7037003bb484c0f75cb11903050d90b1ad5cced4e60b3924503706b59cd67f9071b00701e92adb26ff3409144bde616610341d8035eb32c1d396f134901602f70cb4f0b97d11642010170264a62d1aa2d89af71486221236530afa91cfba2e4be072a4716cf4b56491807393c420d04703a8ae16c40c3ac6c45f844158fd0effcd8fa287842dd8511a27e8a9d35085807d5abd5980570452e3cfff823d82762edaa229005af8f8d7116e056c92d988a2656f75cb65c033e89445a7096beb4a51ba06295c3d21a0068ac60ee1798be5b9b128bee8e3c12f351bc530710884bb80c70b3c24741e20c6b3aa7dffe500c9cb8b83d65e1bb2ed201c76cb653f52a0f4b073a8db0821070c75e43f049aea0f9cb1385d38019df5bbee90e18a36dd3d6e73cbeb0cb6466074e1065010770e3193abcad4fbb0725c2283ce95c15a9ae08d64d7fbe9a6b758defa976896b07e648c4990370f4eb4b0589a923ef118ee3c9ae29aa07cd8df024ea628ea718acb8167bc37d073dc5c4ec077220d8bc0f72966814d283071df2a9de1be7ee49b3fe9e30e706c34820a32a1603bbd149727233dd239cebedd5a46cb3310d03299cb4fb84d392d84cc7ccbf8fe728d2cc47032da990777253f8e4f0a16dea73478066b5a80a44d88cd5f465719e13c4ddaa93c86dde6a075e9ff034057259d27b7abae88f93897756661b88bc066611c345bad995f20b5cb22b31313203ef219880725ecbd2014cb5ef902c0ba931481c0d728f5d7576d056db0c0885f738cd3a5207c8308dcef47262f90739a191e8ccd8cca41dcf849acc91c89a3338f346faf479199b9ed558828629f9728ed5c1c8a787595fab5adf6575d2746140c2a4e81d4b87baefacf5bd18d51f07811643141a729b85a6ffe6e084131dd8ed6614ae708ab01b0dc506a95879deb9996354de660072a6345fbf1f57d37089310f2b2d2b5c92f92941a1deb9897336a2274205261f0762a9a9f51872b7aa18ff2662bfd4224c0b591e546db01327e2603d1704e25a584499632330074558d686b672bb1bb6c8a233d942697a952bc75637753a580393e6405d15d2d9024a06f45907a4a873488972ca588ccdc1c123085852f70c0f07eb0b70bef9abb496d78ac3b23c5d4c025b0721ffc7790372e6733d927cad8738db0c72b67859e45f28fc8332cea0099d9dedc3389c9f42074a6d996f027428dbd111c8b08d4e068990f942b1acd68f3e6d5f112ebb1c49caecf6720a750761857bfe2e743ab55ec9b0b9c37cd8f96d938df30ed63d763ed8fcf82406509a7ef48941070335078775744c20da4ec6e058c2bc04a853f35569595a86ea7618cfa903e1d62af244d4490310fcd37f745da232d7a3143ff136f9cdb2a0bb43941821c9cef7fbf4ebd37ab5e08a0257075ea21ca7197463e71ec8416f6bf52d6fafc1ed888baa1c905ed9b6c4f133310f82d22edc011e814f7774711b7068b532aa9452a3c2a97cf5ec649bc0dff14cc494a5ad83c5af8a6c070731d13e7f567477ebf461b84ad3776484c99a111d64e999165fa5a3b541d049814062b0632607367cd1510274cb46c3303f1b10f8a1dfa29523645c6305799f2b5d4b351021b565b4aa4b5107a2366a578e74e26e9361d00474233ff332ac8a621fa75367aa41f20a3417e10425ddbfa40b07d13c117f4f74f2966a7e8165ee0596bcecfbc672060dfec5085cd669d3c0c4ab8586d9da7a0074f9a8c847b54d10c3c2681ca9ec1839bc4259997d0d49e3245800f4ed8ef913966ef52d7622bc4d5bc245c9da7036eb853181524ba3dc3df1df0a77821114ea097f9d7807da3704c129765512cf9e0ea238eb802ffa14a7b06890d73e30284316500c3f8db73692df5d07b01abfa80b766f3fba816c22ef93091bfbb883869a4821a0da8a2945ac9b1eef8cf5836b0707a665b20d187675d2bf3f7920bfb0b317418695c1c11b39be4cacaf86281c353abe4e24ab390ba78b766d4d0176b5e2c09732c20211bfe79a68fa7f5c979535372c9b9dc1f039b1bdcd1ebd29076e8572690176c89e7cde64543b1fef52b6ecf2adecb12c69150038a1194df54840269aed7407038f7be97576d5f4e3973c9f48c01234c2aa9b75f560df0f706f95344ebb409f53124493000759c506890376d77cd61b03daa4a3bc2aa7451d42c5260b438f58da2d757399c2b1dc8cd962072afad64f02780c98313149febf4c3851f49c91d24ef8f8d290786e4915ecb16e20a111ad330e351d1c78415be6690653aa0373aee2fedd36ea8b29e5ec04e5974fa259a289f9b13a5f07b2d585b3077851cb88f7166200e667a677bc39206d6138465941dcf6184a58abbf736549460787e219190a7865950fa4c54fcc2aa9dc9f46eae2c09e54b280bddc50fc9994316d3b010314073df614ec37789cc6c61238cf29c159bced4fd490fad98654e2b93572d4c8b0d7e7031ccd2c075ae8458a1878a259b9870af314044b389ea35d2848131a25dfc4afb27e308168bae84f5a6c07742d9c6c0478cdccee86691ade7bc347094d7d875b1d6d7fedcfeb690523bef5f3fd6c8b4307be2d2850467a105fd375cf04970cc980f9dc4c410adf06231daa81db0d021f13aa242be07f07544f15afde7a1144266581020e89e2bcfc3954ed958e39f568de9d6ae3b83f33015b68555f62f7472d7a472a88ae1238287592b41643ea8e0cf4a14b912c9856771f2608114ba9853507d9faf0b9017a4c9224ccb9354e3c4fb6016113e74905de1cb13fe2a9b88e84209b2582ef2c007a592da536561cb828c7079038c9704dd57eb91d91d479d2f53e36b562de9e4e07eff5781f387a78cdec7356811304f6075970012680b6536a7ac4606c1a471928143e3d984a07533b8b22087abf4eb2d8b9adcf36f8d642233907c4e258481cda9d94e91db08d89eb9dd36b03ae0311e07ac977b4a4ab8706360dadcb4abb1e4efdc0db04862d0c2092af92a7cf3dce5607f4c5abe9037ad5ef520ad6e62c51e59ff5545e25578c85131219f725e6bcc5ded8819119190369c80e837af0477488783a8e9b21ce5f393b5df48564e1101ab3357425498f2b7ba42335fab61e1d7c1258f01ceaba60648a9d9a79645292204b249c9685ffb88c652be1524bf41b07ffebc333017c301241bffdfc2469244845aec857ea8cf928cec0c88c5bda8524448fe8de6507bc9efd01057c3328772ac40e8782e6f8435ebae6e58bc0c34ce76763128e192341f30de40d038ec7135b7c33cb8fa82f5dd6bc16c01ac06c9d3f581567b44e75505fe094abfe79e2323a07ebcefd0d077c3c140dced84fcd0f8a36266312fee43e0eab6f9037cf2695df41a1c5af877d0355777d677c43fb39ab5de3d6152567eaff434d657d47d8bb0e9fa8e571b9682c331b820e078a6ac1f9017c442b17fe37cab6963afe04f17049ff6d7bafdef6cfce41357ec818a6fb197f079dbde92c017c58e24fa6cae15b59076743fd4a096e2eeddb6eda8799bfea3ff945c0ad37420702ccfc16097c7daf355d5656052f6ee8a23aade84a39b7c2f3cbb4ebbf2337828829734e660786c9ca9d087cc361725df8b57a091524d9800e5f9162c09065ae491d7f343feee88c57d87e07756ddaa9067cdd3650108269238a7d06b17f0cb39e380e3f6bbd9a168005cca011da6a5519074b0553420c7cf8158d6a627170ff6edc1e709f599a17e3390e1e5fc3899bd26d98e92ff51007d2123955017e1d99e8e67aea707d812b267f9cb2df40e627bebe880c34ee56326319a8635f0754d24a67097e2892bbfcc5e225f5e5389256a2069d711e7b0da4064701b928f51bfa35d6340746d1a0f9027e43528b96f6d61f77135ace5c5b9d577e9607057cb70f0463eba66953e7f15403fe41aeb87e71eba3fefbd71b33097bcc6710fae29fb0691d650e80d32eaa1553d78e4e2a007eb996e4a8aa2e30bf2bfcc3bbaefc47e22d8c9cd337f4c59c1d305cf057c7720733b7126c027ec8eccf0c030f65e28d11db844ff03f287bcea2fe4585aa3d14f86497fba05203a0adad607ed9150ccfc274b82a7bc027e38ec3fb7984ffcab0dd74c55b254c08aa28bb36073d319691077ee7b0b814ec388f9aa1124d2e5a844d728179837f521804959db0edf4e4683407787b148d027ef4ab338ada15e94eb0a758493fb4f624c2776ec790a3ba20f0c878f7ae151507244a9921018049dc73788e5e216f7de9403409a429aa5064810047ecb2bb251f069c8a934b07fa3ebccf468049eed24113485928cffe1e38a04c29bb7a5356b6d486be2a08294771810d1c073a69add108805b6f8a0d5a516fd95110b6cf1194bec79f52b3f4e7f768085d229a830a764807a5b190eb2980754f5d508508dcfde617cbbac12fb9c70e6c118c1b6db2594c046b9a5dc82307af77e1990580757ca79f509b0ea0d5debdb90ceed05e46bc2364e01fb4793a9d9ac3fd300407c854c10c0280c47bfe1052a5e783f49095daef36133f0fcff83a0dc8d1d60fc1014c50683507b8bbf3e11d80cf6a55b3d9f83d87e2a0e348b1d66e933d44dbbd779af3f284b15b4c444f28034518ca9980feabcac5517ef2bcafc90b8ab0ee693a561397f57ec8f20097ae9554e9a47100820caafde561a28a6512cd0bc733aa04b5076aec71d313fb71feecf57a43891f0328eb44ae821899363d9f850220df72d4ac576f9bd0a722ff4834e41fc0e06738e634ad2607b614f30505821b840b01a3ef6df36cc3e0e336a268a29a641cb1d0f7367edb7d75e1eab63c074735010f34822d2b886284086e2571ef9cccf7c09a16b78c2868fabf2bdb23435d2bdfb71eee0978f4824ab9426acb639a21f85d5096cbb312fd887ba329e710bd8b5763555912fe7f038dbab647825399fc7c5d167a7eb27fb5f35c4bba8646aecc12030f0cee69b19af5aaf079078298529402825793ddfcce00fffbd51971171aad909fab95729a34df1f31ce5586db81d9740bc37dbfc11f01829a538c77776782639b69c9b6e97c326295e6285bd94fa6e5a03f61fcadb733c693da7b82a1eb91aa6e179021c22d70b937ed90c99b4f348f30d207836bb1e4e8a3cb6d0b13564fef360382b3c601c038845509bda8eb1f1e4120a94e4c3d1395333db1b65a1a7e5fbb64076271debd0182b60f35613fcfb811770e7a6d3ad3d0d105de47a097ab30585ce80733c6951d0718c4ea9a1282cbee95661e8be8a8a26c9b5eee6e90b47bd1789e27e8a871a1b5e5d407d82607745183492382d323595b3e6d91e0e971796d83ff370fe4afca72b2c4319d0848a34f474a3503bccc19a082e0500bbe7e04eda0532f6384e4e4a38de51d32ae18b6be442f8c2f53663f130777bd95f90482eddda3870ecfd0acde3bcff704d069c8e3f1b15568a94c9f581e1db9460b4b076a4dad511b8401204ec36346cb9a697cd9c041083d16f20eec2608bdf8c46037c711b2e1573a53a790840343564caab8c0295c7169bef2d576499c0d78da8381b2c984ad5ac424090a92f5cf318453d2ee12ef446f3db80f27dac5a541816429223f1db283a90d16eebb0a1e580774218239478496225c14b083ffbcfc097178663a17f2d1aaae2c829dcd8adc2722e25daa7f076941d8be038499c2fc2b7b9a4001e7216274cd9384a7a55f3de491d085108647c9090ac0259a73764d84b08eee50459251c240f3ad2b7c3544dbfaf3cd59c94314582d3a8f97de080c0792cbcd051484e61c3d676d1b0812a79cb2980e983bbf77d2178370797de973d14d25ee9209075a3adf8f278653ad51d766f752441b4cd57744a21f77e0ddc96b0629c6b6128c5c2802df4b07fb54e2650686640d6a2801669be0ac3d41256b7156b86b27bc65d1cd2f002e9b21e69ff8570371643c7a866c2498b7b9a7be3f4881f52d1d3024746fb9dc44f69fccb9ceed685c52a406b2a46386883aced9960bd0e98ba5e460649adb4e5c10f09b52dbc28dfaeab2ec376b915007296ba56201887fea370df2469724a8ca408010385f8b1724d5ceaacdd8e9ad94b9133189740773690cbc0388873c5d1b04d99b696c2e3ba0cb1b41bd038d822dfec0b6665b0ff6edf4f63f0ba5d1493e9c0188942acc91dce6922e895e1914f6fe5bac6f70272c2ee05c1587559d0be82e0c07a815f1c50188ae7b18f0b2d321decf162aefe52ec608bf0f862edca9dbab63abec4d47ce1803d5d3b64088c46c8a6e658e614d3960f0519647fa3ba2ad724639759450a21e5cd5cdc0650749ce450e0188c94d8bc79e52f55dc482c5bc822442727cb9f9469b2000641a344974f00471073af075520888f09cadb22e35329f492ac00b229867fdfe563ce8785dfcf1b76b9ade909d2e077c595d2b0388f3947003f7a82a0f4f1f939b52afb61c9385081b95dd96ed4eaa6faefaf74107ef07c7850188f4aeac15cf43952dd697e4a5f634d796f2aa8d6fb065498b15f2052a01b01203305f16798a609e53c3b2224c403ad10d92407a1da5b123ba607c72f7a47653eb6d607c07ae1c041a8ae0509b4f58d31936f9918070413c984ddd0fc6d7c27bada3fd0c3d0431d827076fdbfaf2058af56e2cc633d452cca265e808458f3ae5a380c4c4861ae028eaae5cefaadc6f07e676b62b058c029c0cd3074b614ce771a4aacbe0bdb206975bdb0e2c9b97d0cc134850377d079a69cba30a8c22e8a2d0e3167de22a37e7bf41fe75630609010b549fd01bd9f78ab9200752e267e3838c4706363db76524c48b903d5e81b8e1e6a2e51359fe6e10e43bac11f8b8cc290772b430a4388c68ad0194f12294618f36861aa0d2281e048cdfcd9dc27bab6be9f88b51633d4e653b1c8c6df8dfb00ab974dd08577c55055c7976f0a5c6ede7208079201f85754a7c2903d609119c8c84722f6f3aad8467e35bb5ac9bc199ef15b393a77e3e24def7a117e44acb100309ffb5808c8f05ea03605e450bd0747c840fdf274e9fc1246fc593420b6bfab77c77494d07ed4b8ce3098caa723fa1180f845778940169bc290f011301a0de9a70d0b3187915d51a147b008cbda80ae90a2af6463d65ed1eb10df1ad87255a79633f46381294945206616d07a52cba0c028e18105b743f4b0df9edb7eebfaca925674cc7fd960254cd97b226684afff10f077b04c970018e33c51252c07e4a000d88ccb50c619797e204816f25d0a57f0f7df7f26e39040766a7b982928e4aeb6f67189d96d59cfe29b938759e75534c36926d2e0369b36dc08d49eb7207aaa20d4c508e57523f1c7a00ca0131e9c4a810379632317c253a9d29507670ed148e2f3c44008e6e9d660749b22e7b0d9cef86a1b952bb9088f6e45f772df64af110bfd0db1b070855f31a048e73e176d3a024720f6f4f2ec7b166d9b6910f111504fba30323e535b14e0d160b559c5bfd25018e86ef99b6ce4eb20a463d33f43099f287b38a3b4fb30c2479a0d27f73d1a27507b3b469240a9049e15dbe8504472ce5e143e6acb38386b20d374aeb66d83269397afd2185130397249880904aff95a3e047f21407fb3f7782cfa118921df956f241784eccc774e885eb5ebac1d92b9069656895596e5f45828804ba9da44cac3177e55a43f046212fbe2e5af2c80507bbd53fd70c90701403349bda5f2eb183262394463eaabe7616f995a4e269c62965aeae272c0771a9428d049086a8231aa29176b57c1e4c4da3aa336dcd9c6e884952a3a4fc3893c58c1e550775d5e48e0190d2bbb487d9e9bac6ddeccf5577babe3a62496d1d3afd5e726f22db8666fa610090eb069f4358851dfac18d7002517541fd20ff14f2c864ec11d8979e2181036e07977c23130290ebd27c115105c949b75fc0a956c1d7090238881eef30f6c99d0448fc57af67009210ce2754ca378858017f286119742a5006a336bd6e111b6202c10a78bbb70307cd221934019229d9dde2a44ae867022c397b4fcd6d5d55bdc4b908ed6a21e118843cf8825000923737f7dfe2f15b0f992a4b81236fcdab114bc4f73bebb653cf2d747cedfc6c075f5347b11c9240a1cadfa843401e6373913423e87b48d7bb8599d5a3675e633e3a6dca0d1b039205bc96925d7c62a5a7ab2885ffc7d7502ab0bdcbd8ad83f3f1c5974c7f62b09ec4c50807befaa08c0492965e298e555cc578d7bf7b65ab6cb104b38a83307e4bdc8fca25d8506925470b8b70f7ee1d0192a024e9b1d0b7d10423952c924cc45c40594b5b789dde08fff21a809d684e140092a1644ac7564d2ceb60c69756414b95927b9645556136ebc3ea435e9b699f5703d66fad6092cfe93f8fa5cb9d57da1c8fe28ba6d53a5233165e14dc8d616e1816c5e7ae780749973ba94b92ebc38db9f37475b87a107b10f1b1d91f4a2bb0e8c470a19f6ff3b34a87bd1407b05e76a80192f34340ddf7d6dcf9152bb014f2d8f718fa5fc17786a1b5bf05bbc56fe6975f03b52ed5ae940f9db5741861939cb53e2fe9868a1fdf8828a5b56ae1b9caaabb81eac72a0a07edd9d7df01942564482b4e0b24a932f53d3b00685b7a6ad4058809526a5a08453c40bdc5780790b54d5701944e760bd671d8c54881419f5a66f6e25c7cb8a768c088301bd7612d45c30c600790f607a304945149e673b536a440126df93626f9f981499d8462770c45f564be11c56b031e073387f6ca10946573e38ae29dda350e40a820c86175394ac02244066251f3e72d090fd0aa765ade027894657962664943e8a0503e0bc2d29d1ce69a89a60e25968631b15b0ed6355c370bddea88133b019469160db199314262a7a7ccf5dc259d66fb7dc21f55856aa17da95b7c5c775d0094ab5b93fa87d59446f813b7b5836e9e034c576c4b5b3199b7ac9149ef154d080324fb097394c05e88209fd3a45574fa7ec27fd1e72c8f9c58139ba9c53d4633e238b3157603ef21988094c10ff3077785f848a4ab87bcac2c47a94542001d38a6dd8db44ce9ac2a180807d80088400194c481eb0cc29c9e3c421f82c2be32b141b9007264a896271536687f20f6757507868e58d60894d57c81c91db6b8c1c98659904ddfe90f482a2ffd5d2bcc69c8de3ce6e3ab1c07ec8735090e94d978d0a42a3cdc7e06d3b8e4d43294e4ce2b6b735cff85fb3616ee81280a2d0bf327ce14910194dce02c56716c574800c469b3d1927cc2c6b90c13ad37c61009f5518ed1525e07b1937e0e0894fde0784633b0c8476a538a61420d4d3488fe535280cd20dec18f45afa3276303f17365819605aac2a81b6eaadd14b32cceb67bad603c004e141eae5575737a23f8f0682007033e576f31961e4a580f63fef2ba4c166fa52bc1116c06238d26f524202ba8188630dd95030792bf178102962091132a2121813009e9ea6056d0314e53a5d18f8cf197b99dc9ec88f86f3c07c8dc44d82a96223f3a7d2b66fbc998c2f5891b8983bae5dafbb58cac63d8d37c123be583670096328e2b4e047bc8f4994d77fee78bed3dc6c627a4332960f2723b7681afa1440722919df80b96393b54bad2cc6e540161853a2d60dbf2fb71a624c91047282a043c62261e13070c7d9c900296629978abbd7440a10dcf17b2e2e539b99c7cec2afb65d51f80bbb66417300503629c04de96a7ec21047d89620c45bb9fad831c649917b99e20998944a9e98df9bebdd2530708d02c840896ba68aad8da8e79f58f55e1ca854c5c9059e01fe158347d69bc739886baed72075fc3a2650d96cf93ca81636fe1eac6a379a2e8e2598e389b217868835f3bfaa071baf4b9160096f618791adf5558504cae6ba0e37c1e13b5e1ed5be74a5d6eb1b1eee8811774077a2567ed0496fd52145722cdf1cf913e360d786fc82cafa46da0f17fcf843089713ce69577039cd6c7f597d09f8cbc580e7de0f1faac6e86bd29cc35e3961a823af3999c09e5302df62507a8f0e4bac89800ca6d3ef2f3fb92464b60de18117f1ba6de4ba407f53ae95664d989219f25074b2f1553079807a44cf5498d64aef0ea308e55846d87c4a3d409877b0392f5f0c16af8b4340bc472fb107e049812012b11cda79bd8a771cbd60f397c47c4da39f65625277db6eae2fb26223607a5c657e3029823d24e8264505040bb4d68cf7c6374b8a2b5fc34cf917a80cff0199016b938074e5946303698841344df957db355b7825f0cae2f3ea6c82cf48e896a1a5f02f10d7d76657f0bad17457e530198c0291fab11a0e531a2332725e642604ec46841ffb9e99aad41ec579a77c2570371643c7a98f9350040ee628f25f3f730040fad1d135f615e104474edb01ee159f0efb66d076ed794b40f9a06901dc669fe610a490a539514e3e030dd89d750f791e1afac7639810ac858069234bc9a07b02ff3b6c0fc2952151d55dd8117d565bd7b98c00f7a036bfba383b7ac0f3238e3f39a15134bcddfa6ff65fb015ac262c99826ecb34ae5a34b7abc049a1a3edce57807811e9c54129a25cb480b530a609cd3e236831fa94d61ae759327f64d717df91e145e584a0c073b62895f039a3d188c09d5cdd3d92cde4bce2e68c6ddb0795e93cae5d9f38cec57fc57e65d07e9968294039a3df9688571bbbfc0f6d2af817db5b1ad41fe7dcbb2da176789ad8dc981511f8a6b5af39a4f518ec4edd5e4df8a0dd43109e1a91878aef595748bf200e93adbd84825300351bcafa19a5a647f653cc9226c2339d14dd1f8bc1fb8923c03a5d1c5a90c070ddf83d13607e55abcfe059a5ee2ce309d039bb9b3045fdab9edbb06638876595d689967315606ba5a8543077fd6a8df189aa3a387df3d5fb6b7922d9c8068442fb96d539ad23062d8b576956bf240d3586a115bff9ab961ea2f943ad89d311fad8222182eb16bb634e76e77f8688210f5b7d04e1f03d2e2ed869acb80cac7deddf552863eaffc7fd5433adbcd6ec4354df2ea4f77a320731079073e095b3e069ad52fa96b8b3db7335a207d8832587d6b4652b3169ab1091ad00adf756f51534e9d56a89ad632b645a9a3f0b2ca5ba14e82858a12ace26e3bdb20186536d2f41cb6ce3b03ac423e7a9ae66ef9b29e78f60ec23889b4f17609984a9bd7c75c9ddfec31f490bec44b420780418dc3099c4e761e4dc32b116549a25f8df854d5efb1381d6f7a72a3a68149f9cf1fdc0f07eae2d12a019c8b9bb02f49396a7a51646d9540c6eac1b292d3769da7991d6f4577bcb55a11073b086366019c9575a90afdb11e40fb2f18baca99229075efb430051d6d6be0a683d34d3a2f07ef39ed07049cfc05018bb36d5b9a1bb33d803f5cfb66ef42e2e0ff20c531de240a4915e12e07dea88755029e12dd6efa1d214b99fbd7b557d446714ad027c2c93ef24c7bd954b91a2624330b27e46e8fa10a9e33fd6d85fd72ee2a6080d66f50f549d86b4917abdbf42af5805f5ae05cbd6a076f624430089e480bc26c05f2aeaf0942d79591037b736b31f8ed81a906676a03febc92fc3307422085d0029e52263b6b5e1f4fbb4770fb1e2ca82ae7b7d88424ec1f021787ec0b851fad4907c52c200b0e9e63bf5db2c6e78273ecb9283159f5507e64577f51ef5751428df649fa0bba1007140bb257079e7e5e353d9c2a53700c34cfb360eebb6bbdab13587eeaadf854bb756054ce5107760c539f2e9e94844b7e6eee308ecb102aa13ad87d0f11cd308e18e223b80e5839cf82ca3507086350e9019ea093f154988f3933862a97453cd1cb9ed53f22cf6fdebad204b846072b1d17072c52bc6a149ebce841459ffa99440c6a0cbae4b3a4df35673c2837c4b6bda7d604034f8233073fd7f738019ed7c61463cdf8d162b4b55f9c8c425c681c9983dd72cd18a4663eb78e73402c032adca3c19ef7b15994332a20f64c8ede0bd544143aa7651d06ccff970a7ab65329b5745d07ecbf25590b9ef8a6d3e02f9d769c5b525e5c52a2f68bf5b2b469caaca34601186ba23d650007ab2a67fd05a0123eca6f8fa8a8b8f2c26ec13b41c6f9bc9f197499e882ff9a5590a959ac18077a98c03f01a0412866f63645216a1c2193b82a8fad8ae27ecb3d18a9542ce9857fa911250f07949f694b01a042d757727bef1faedd73e5a04b8720a06f21ad79ea6d773c39f948c8b1204b039d214540a04c6170d310909750ec7307a457a0dce09c9ff3410423362660b0bc2844be2a0710b86d3e04a078d5ca6b7ce83d12f2bbec9c6c74722d6d53af1f5ab8a46a9050b38acd900107586d1b8e05a0c74d38dde06adbf70beb5bda59065b22c45a85a5f3b64f3e28377cb6d73e712e7dc17ea0d1dde19886d85b34fce822d43e09e2f6e945510c57346891face056af70a55030d237c87a0e9248f0bef2c27647f2603ba0a8c52e47ff2328a0f057416780ab3b01ce840076283ccc10da21de9bf0c807aa7c4827dc0c55e79b79fa35f74d3546840f525c2b3fbb0116b0706086af219a23208bce34cb4b94ae7e25c0c14833c0c75c004eeedb4af33ebdbe2623790500a989135a2af65d59db15c0c017fed555a30bdc2a232881bfad1fd3d6c21a3a27489217b0767067b1501a2bc3d8b37702fb7501495ea6b5f95e599a85502181578cd3051d15889bb7c6e07f5a65e7005a2c24b1f648e0944b80a053abcd104242edfeb8386d9bb3c123460c5b6e7fa6700a2e945b2912f05a54b21ca0b9087603223dfa0ee5d12d68957d5b70ede2a463c079a8811e701a40178520da5699934ac469ae2eb74818d10c588226fb71129adfec827e8f54007c93560b310a40aca881715f3860e057d361a03515ee3b13153c89a99f7644cef97e259641d2e660033a454709736163668bc8720f85e928199a63b9f247518b34caebb02e152b7e74b03bed4815ca45aa5d4e6508f1ab5232b78e83ed3c0fbdfe2dc1841ad0eadab3e87b8ce3623077a73a34901a45d19cb355d61631582146f79017a7a02caaac197f7fa450f0f6abe08a0ae6707f13a484d10a45fe550663194b0d834e43d178171908c1b08f3d76847d2916bab5fb0addf74034523d07fa46870bc0f6029187bb7e12c4c99f936483be458f096df91fbe7dff1116b443e0370bd3c81a47b2b4af7a2ae3260cb4b1f0615ec0867b10fa9bcf644b5ff4c8bc99a3fa51b07d953498c0aa47dc63697b58be7897dcc0d25a00d107148c1bb01bd6423ea244e00d7b7a166075d7581d502a48f638bb982570558ff0a1a6e199e638aef21921bb7f00d9b969c7c734b8e0cae5b9767a4c01f52b1cde088f580df61d51587c5becf04ec319a92562fc1b321ee1bc97f07933c503708a4e51b606332ca927966aa03add703bf57912a4538dbfa5538b10a59e27585590b5758afe8af03a4e8d04950f7c318901ad61fc8fc2aff3ce1d897852681ee90195f135033772e07d7601d161da4eea44349cc0e08f81e98ee827d738e623cd0b037af261a1b5efde5f3e03f080a4650f5a4f7a01f4e1012cfa7a0bc01226ad13f772cd595eab1dd5c59d9b38cfcf7647307bf4cf37b02a618598fe3b6a40ad3758c9742f31b446f354472d9f490897761b627b934805107267abcf907a64f21b512d9ae58ffc6aba3b3f0fe2a803d7b6aa260e8b8fff4a01c38b7b65082a39049a674855c21221c2a7a37511020c637058c79da0d1fc43c0a8491a30e49d7716c0349b7f15ea697a0b3af00d48922d30fd4e5e064eb21fc58b002c55aed50d0b363b1bd2d3907056deb0b0aa69e14655448f8218326a77177b70a96d440469bf84e4b418a9ffd2d4be9150c00a6b11ade6f391a8877ec4f565334626b441e5f106da045f130d843277d5d3424075789f2fe20a6b96bbd2c5c6575a0488cb47b9fb7b4ac743f0b9ef9363fdddff06286dfe736075d37bd3b06a6ceb8d0c41c9ad03da31273f21fa5bdc73f5038e21cd60c5887e1281528207d077eba629002a6eb808898a3b0b7ddbca1d02c814502b766d46127e9479e8b435cdebef6800c071bcfdd290aa6f05b257e48ec5a1fddea49566a7d79c83e4acb33af9b3d875b315313dede2c07008c729002a6ffcc22d748a389790016d35bdb1408d8a23e7aa310f175bead723efc7b9e77075d4e025202a80ae33b60bec679ba224437f316f52a9c492a1d5cc7eec9120b4530f8888b6a073a7993042fa81aa34e4256ba1e67d9304b3789ccc2458a493761c2a354dedb5dd3ff632c46071e57d90b04a832ad111928f324087647662406043c5ce5df10b0c242e85fac2a242e209d2e0794bd3f7202a84f55fb0053e07c593f7486886fa733505ab4d6bb99cd542c60a9aa6f9c033d00a88c486e95b8bbebb1ddbe4617a1045b82ef6e9050776d067a5e5025af71685803a2981580a89e7d23769663b4263bae660bf314980152f2874b652cae401f8f39e8811e0c00a89f40c87cc79da96b98e9fb730a69b72c2addfc0fdee877303dd44e8619141b0748a15db804a8ae68d8a9badcb9068863743ac146269328a60a6e2ac788f522bf03e88a541707df4d645202a8c5713d8cadc2cd2375ba0c5cda2c666f0fc61a07ce009d42ca87528fd1415c073dd32b5b02a8cb25f467d8ed323c00bd37af1af20df4b6182afc9e878dab77a7b4fd46e5000be8eaca581801a8e300f03cbcb8226fae057649f47d8ef78e51f4a51134a04a6c85f83bd7a22d00a8e5515ff7a4dd0c7331d25781352b57062ea9aa8d303049ee5da4ecb9653e3307b0c17c3baea8e8c22e3533914dc12145cde25eaa7329254d75aae2b5d1cbd5086d0088f04b07622f813c01aa0864fbae8c45e103ecc973282aad915e9a38aafe619ef32978fa8bcdfb6b33033f494d41aa386029d1c324854c266cacc55cacb1264f50a85d03f786dd3c09e7707afb0b077a0e16bb0baa3d25b2633fcf8eb85fea4343086ed64fc1e27813a1ede852f402578c3f364b00aa4b4288e82e369ab95b720d8babb8eacaa9e60bb908cdad229b3ab41d003e690383c81aeaaa582a7d8453b4c037a7b73b5357dbaceab2cde20008b382313b4f49728271290733091ec805aa677ed2b03b66ab3b5d5529dab92ed35731fcbca6b8fb1565c1bb1e1e592261079446705903aae6b2c34ceab98f7855d458b4f340f2a68af76051682c3ca267b8b4e06d456b076b7c3afb22aae84cbdfdaef4e831d525181fbd810e27490ec5db954da110a9edcd5f4cf335077e90883406aafe3932ef87603e5c2d8088fd9bc31be53f4592749843cd71ae7e6f59872a0307b48a52be01ac2920e20fba6b5f997d758357a99bb04fca9ec2771d92a9110182e22bad105907aa617cf41cac5f1bf40968f84505cdd63d83b0955a421765c89960971df3f1b3a3ff9b7b7a00ac61bb940b964bf1366736921b041d6eb4ddbd25d63f391c2e80e3b65348d05e467c0afeac6b32d90874be2f3154c1657791ae827f52f897c1cc0ab5445e356ab0db0332027764f0accb2d9183935be603897713766a85a4b773d0abf1a58dafefd2074cb1fddc320741f29be0c3acdb02d18d94b7fb1ee2b04d022bddb5f8643d9db59f0eb201f1f238be885b490798549f0201acf1125da3346f257c2c28b45b531fd49ddbf5da9721ad4ce9f17ef6a3171c6e074fdb5ec803acfcdd355a2f6afaca61539b8bd7379123a2ad4722af6cbf18d5f92b74b8f568078d56586905ae069a14096d4be327d5fc3297b5ebd3d913fcfef20b46aa851a1e64691271200b484ff952b90dae106d559ac191774914aa980bb360176c5445cdb44352efcc62fd422c815d060713e01c7a15ae16e0a8dfa7bbbb78566daed48b1acdda9f2e9e8aa1c8d19a6aff14cd7be60c07dc4c3f5e2fae1c20960233961728758e1ccb63e18c3eea7411f9e39788124ca7ec84e1774a07bd8144ff04ae26db329237c487c1ae025954db4fef5174a00f93b5e4eeada65475fbe54324078dba53c201ae297d101503586756e9b8df1c8d658fe12f733980a06e96ec12a96f9adef1470724b61a3417ae46ec70c173a5c8f508e56f9ab1079ca6cc6bae188ae4a300ab4678a8c6fa0b07c9f15bae0cae530e0018fcd8dfe1ac2208c198a3777774eb32b7b8b721227bc7f694e73f1f032ac225a1ae6c558c22ccdad0ed02f622c6f64ae898eddc106a94cfd165204ebcc68776650774fd09f202ae9b6184006116de7860623861a7eed18f753ef72af130259bda5cbccee0286807a51a3e1207aea8dad43c2e4ed195b3e6ccbb3843f82be14638580d01d1b00520eabb3aa25503627673f0aef64cb456addf63aa62718266e77ac57b158a496d0a775d36cc4d867e4aba3407b4ee1b7e05b00d4d866c427aabf52b17f622b8ac77d9a5f1a6c8db956fc5cdba134955667e03c7ab128bb03d4a4c3cbe45c5b320ac767799097458b47a9b405ac76bc9c937fb7dfb4008039f673f52b048df6bbb4f7973a6761f93ff7268e82e2531360b922b450cf67cd3a2a40b5b0e05b2b0b04ed74470f9873ebb5e4d35c0eac8502233bfd692b64aacbd9e1af76b8513430725dd395701b05d599ee1e981b1ef7b71ccd1435893d93d129901f8b74a0a169e3fa960275107142c7dc905b0879fe25c9c5fda032af47be9471c11f70ce126281c472a4338d4eaeaaf6b75ae81a5f6b0966f711a521f6a22348eccf475f79db6ee4fc35490a98a812f2cda94dcc44203c7dd4b65b0c78f430ae0eb88abfb8581724a5db2221425293e0bca9fd8e53020f1bf5d4d0755c45ea050b0f2c7f771ca12f35ca1351c39493bb36b22ccc4bb30778669e81e305a92ba3bb6e08d33b2224ada42b4f32aec82ccd7779c8b23eb6b3aa976137f05d48fe45b0f2d0563034b14776eb223e86147624470e4c472bfa9f6901ffb63814cc79605c72411530fd780817a07ff00894301b23fb3cbb149129fec3d50b6f9c0eafd82f7696d51336a1fe4de652d879b5d470bb0ee0b789602b262c8f7eb69a901d9d5777ea85945e23f5e1cc044f82a988d9c958a3020f0230752cd6b6601b282d6f3791b9e897b0216bcf7cdacdae6da76558c96fef79b28b5523081760807468eb22f79b29727a3f5d2397288d8395ac424d10225f19a85f84beabeb5bb090a1e93e81f077e8d469702b400b12970586563ead4cc2617f3e69762014855b3c863f4ab44218af8f29d5803fafbbb45b409ff6345e87f3bb06dd889c605640115b1577863369bc42552135846ea19720739129a330cb490758e570bf3c82209dcb70c6e2d9ed3b06094a018643d1e68c5daa4c9ec055ef622f8b601beff683a1c4e86e52d0427b8d4c996c31e0f0a1d70aa535765a5dce9d05307c233307017b62252f943b87095c297722b33232c8eddd80d69557843d55464e499a8a96d4a031e638e4bb639d369fa0ca2feb125c5df69ec47174dc71b7285448571a2ef60d4c756346a073eb5074027b69d8721963b7ff722af2275740c6c8f60f3d0b59a9725af1d1c124a8462684403c04d9ca5b6b794e8b74fcc5ebba09dd79f40bb63e1889dbb435fe1597af7d231d497cc719208b389b6cc4ad9ab5da97891b16c124a34fb2577b91377fe3543f86997586b1026ab3c0364945c47b8a2cc0f9682f2bd1fa15522d20d7573bec2865b16990c4b6cb09b2ae25a1f4607f23eafa604b8bc7628253831118b5bbbd31ff39593ed5a6cdfac178343f4fc3c11ce60a02e074c80aef002b8f3640a14c5ac93a495fd07fecb44f2058b0b57c60c19ded239a9ea39deda531a471966ba53533a72e4db1390b14e9c05a51cce450d3dbcce5ace5b51556706398cda2f07d5fcb2ca01ba68369c0d5147ec8510f10e266912a3524c1346c12a501578263a215d9b4e640777afbe5c0aba6858c24adbcff995c5aab84d50e938059220594b999d4bf6bfb86fdf29bf530771a8d1b301ba6cf3daa0833a37aacc8e0ba2ce4d99a74c14fb2ed279be7037e9a4bcd6ea2203070aa249bab09fb7e8b7307a9fc4f5a68752e2b3e330ddc67111abd3cbdd7cca6b84e458078948fea403baced2d818a013f2d6198b25351a5fb2203d18c811e039c03751ae6af450ea3c076ef4143202bafc66a9d93f91578040326579a945edcb825548f83e2e2ab065bc20aec76233038f4ef5a2bc1b41ec5b59e8a60c450c4f2d834b8ba1119f3f1f55d3ff6d04f45ac356fa0f071ee7614b04bc2d0cfa889c64562c6b46351a3450a6845dff55259c090c6b17a14b1d01b570072908d4581cbc30d4cde0c56decb5e9754d56f04141f0094be9328d5a9177a4b01e2759931303c259cf43bc461c6f069ad442f3f1b6feaf4f308b15f9dda09d64f89fcc6ae4a6f84ba332078376886002bcdcfb0139a3ecf8e76abe60dffcf4ccf11ccbb466c0836226c985955f35095607dc8a46270abce8c0db047d3d0c9d7184a4463221c48d014fb4cccf3d2c366b1adb5909552007530aa9c50bbcec3218ee1f4f9d1d8589a933b3cee14994b01ac8321b2facaf14200fc0871a07feaae8850ebcecb7a87ffd2c2f4645fdb56ba90cb7af249e0aea22e3947a6a27a8a0d3f84e07d521ce6402bcfb934d455df7edef6e2dd112d505cd843d6dc49f7faa19545f8f046dc0f21f07d3ec13d402be120ce4f8c938614ad5c9cf3912e5c756f15a9115380e343a244de560dc222707797869c501be33989a9836c86e1e2b90f2c6cbc8d54cfd3ef7ae5d393513248a165fbb6f440732ccb54c0fbe410eeefb9c58b9b953240a1177fe0b1d49068d593e3c262bcba33f4696990f00be42b685ce2fd8b6df5cb239fc48bbca89c86bbddd86977cf215c0c79e4c903b00be5a46760d492e081a0197b358e4ddab2c8ac15f16b2e05f47dfae32cca3cd4a07e35760660fbe62e6c5117e53f7c801322ef520f85e4be3001568ca156577a5f6278ca4565703a3376c64be6e8afe58b03638fde528c0834fc538a7e78f1164628d3b160aa9f1d490257500be7c4be4309354d55866bb96c297b9cc941daaf52326ce5aeed5f862fd7bae2007a4dabda101be860127a355f043f8b2b1596be122f55c8fa8f36790232c0e07f07aa26cd51003c079629dbe888acb761620334318ea49f0e387b344ce9176193b12b854d1e65b001a9f3107f1e9fd8803be8f86e6f28b56b749aa349cf16a5aaf3362d851925e581333975d3dbeb9711600beb5d79c3b738b602abb45da06a27c4fe31798efdae9cd46226660f4d915c85d07b17329ef02bed2d2b6fa7dc1e824767765e73d1dea8f9995585c6eb282c3e9d0c009d8c20e0745ca999303bef7e4448ea053f5d3d7d8eb301b2440e5c0efe6b0784614f7991009fbf4055407368292460cbefa912a1cd4ce39f261d1c6f6566615c5172a51d38ccc6d2dc775eaebcd3564031207f5d8c02dcb411529876030bc6fbf2e5e34be70b56bceb92f33c818e18b7e97af633d070902145107c068d25ae2e37e6704d50e3027c883cf77be51112c11bb87a4a0fc856ea7083703c68ebd44c07c4f8d4222d37753ed3abe6a082e97e2da2ea29326d2916d66f940bae9f47c07283a7bda32c08c008dc2a0841a0dd6acd21b09ddedfeb5855e41a3b13a03d59350a472e328fe7518f7c095c3c9a07841ba609966a8405f48bcf43314d03b385869e0dcf8541c8b0907073e92532501c0c5d8c244dc9b3729c46438a6dd0a6b687af1191cebc08cefc072789f4fed4c07b9ebfebe09c0e18872224fbdf7c7a7d296338571913294e67ef12755fd361a590ba9da777b00c0fc34141fa1470e0134af029e91ef3e92736e1bc0552a9bc2b2bbcc3bc1e03107ded2069008c212b182b21f9f90e50f632b98bfe319ff9f5c28b2ca74c80f7d599ef3db8817828d3cfdc21ea28fe3a78d11a03ddba4a2400e9ba3a5e4f69750c5ea31535d530cb1ab05074143e66901c27caa85d88c7e617fa799838ed216b841e821a15f2c34942e3922580720940507728478c006c29155a480c8ca26f03aa223aa467627a508b56da16080b0a0529e31f23d3a13070b08167b10c2b6bbfe6ebc817a2553554705f85fd52a0e47fd5e970654461069dbd2e0596007c79dc79b0ac2d7837a75dd8cba4da051eaf16c7f28ff44f1f2e896fd0b475322b50628e75207e5082a8a01c2ec91ed1107652dd8d4b792f7e2d3a4464d18284389e2eae82ed15a73d9490a07bf3a1aa60cc404e0a31a2502fcf27c5c1a75388db589dcd77416123e514b107a381c206f1a0772b8f52201c434363850de549488075f868260ce77cf47f690fd23944028c30f5e103b365e076b46da3b02c4391ceb21ae6cb6abd68c2179c4251dc3ac0c9bcef99100bf0bab64244a5976078dd2d58902c43e64174f0715dced736ae6e551a22f2974b05836eede62b4b53b31659c29600383d38246c47c6b8760d263ed039ea2a08015c988e976c88434bd521d4079748c84670c2c075b3359508fc48d6d50395926608b7796572a8f88f7c964920f39b62c8986dcc836fd62513a07ccc1677e04c49a4c82dc516642a459a4cb602b98a3c20a7bedaf5e94a9c51bbd0aaf81386307026a018505c4af434be247289ac101006491c5c7fdd810ae606514df38e9d6a577ccf3a25e03fe83d0f6c4b732d144b5222e04014d7c8c1c7c7e86524a169b9c4478ee1b05267a726f39077b1799a104c4d0053321b2d3f090045b46e9901ca4517b826138d46b4e167cdebc0f578922baeb01c2c4eb2fd8d8668348cfddeb36fa1feae31d6e44929ed15856e152f98067a84a5c07630f6e1d01c60f817b3ff9ff0d708113231a5c495473401be2da5f5b133465674fc173395407570020e406c6541124f1e3e8737d5f4c77620f62adaf54e3e1a31aa141a9160f754f2cfa15c2b6f14bc65bfa98fd072887a7afd340cafec03cb632016bc47a22001d93fd489ae8363a072193ba9936c664e86cb9e6ed677f04fe6a0705427a44e04bd62c03f9ae85ad5d41adfc2c3c07683868d305c6791ef6badb03c05b04100de282c77df48b7a48a416bb0f52864cdad85d14120bcd7994a63701c6a82b88aee6ef078a30bb3baf9607dee76fb6ee69f31c4bc93dc1217b203020076ee557a176c6b7254dffef7532f5ec94961f88cba1d4dd533684e18754e41f0a7edd98fc2b07098db31401c6c12457ada49f256b5ba6d31ab8f9254bf03c4e09cefccdf144d4b81454f32807786fcbe14dc6cfec84ddb2beb6ef36f2aec21d08086fc4ea79b68c9d379269b9ab2cc8eb5c070e6d5a4403c830209747e3f0f79681ff3db1dbad903fe4ddc107ed5eeef5c35bad5f5154700793f4c82504c84c9c8da924cf33f664c61b324d8af57f5aafe4add2fda41e688d919353b04c0783a2cdae03c8688fa2f7b5963172a71cc673907176f03f321f12c414a63bc5288fdfb3aa14075b2ea97301c87cc891da089806f55a1304c4961c69708672e5d58cdb6402ce82ebc9550621ca50a57fc88f070cd2cc09d56febf247158b5a3f7f3acbf91569f1c8845495a28fc1d858074e09ac8c05c8d67db93635eae9132f6262c4aec7488c17e78c51094a102902d521c3039a080778c4515807c8dd47d0145fd124e1ce6fcd173eae2ca94f3805dcb68dfb6eaead83cee72c6a07ae04b057adc8fa5a93083a959042c29583e3aab144943c3f2664d4fb2b2accf9f2f48e3b7103e4be8475c8fb7e3703ef099d503cc1b0d58a69debb58ecac683b3be2f360707444bf87690792de352508ca073514d65369d885f4bd135b91ba12488f8143f8637b12f29f365ad2ecd145038fc2e8e8ca0f0021e15cedaaa787cd0eb991d9a693138f644868195fedc42fc830417657079dc634eb4fca17237abc74bafcf905fa5a734b614a390f751b48f426d6fa75070fd0bed60303a86ddbbdca74d80e6ab158dc477b80f3158ec0db1fc66ac1bf3a13f66ace3e611c37904c079f4d343114ca7836a4846081d0cff91d0f7db3ac68681cf02f9b8446e1096951ee5ab0e43207f1e1a38d02ca82b78f10c4765328373e6b2cdfca5aed71b0b11f2214f02371e68dd57a32190b6d03567d1104ca9d3f978fad37cc5a8cb67af1904a909f709f70a761a7d2c0be3b88e6060a160760699f6317cab3c882a58c5b0c7afaa90be52bf8c0d5edf4482a0db4bf5251d61ca09cb52c66133418cabcda28f0f1df90c6d063cd3ab126678e9028ee1351946d847a312674c358480733e375645acac5618b6b8519a4a88a245dadfa64c3b4106898e581357f6a01ac07fd29be330761486a1701cc3eb0c35141cf4ef0941b069df616ac809b7143c5e6a8247be4a9fb380e8d7107641f5a7e02cc54b636746f5da5f1f226b402200e0f05897020fe8268e8f53af0eff86028180765cdf06f14cc670f26c53642cad3a32beed8182fa88ef7faa87dd661dbeddbb713debf472c074da017d80bcc6b3393a801d5c81b58408cfe4fdc0ad81b8e0c16e8ed2d778db5eaec2c747207c96be2b723cc6f4f712ad948e4a44ce457eaf9761cf522bb258cb62bee722b4b264306e44db6770b4dcc8a7c6a1d5ab437c7fb950445c0112d0a89a10de6c1b9aedbd1fc3225e4713b038fa01e8ccc9313fa2c3075f5cb92b05395ae4e52bfbb6c3872c73871e71c29459b01aa0d07d6068b0605ccb7fb50c7bb364dfed64e399c51c6e7864747af711b6e3c67d0883642f08d5b07cb14642d05ccb951a34f6c60cfdd996b81ad7ebc438723660757aa1d11eaa4a07485023b2f072443475f08ccbbfdd7430f5c790dfffa3bafa8962c8d94c2b9c157020f4c8a52618ca2ec0f077350f9c902ccc049b44bf0176398ac256f9668a9f905096d1b4c3b2ed606b6bc7007728a4e07efadba1402ccdbc835c1b2153c5f7e92b15e448a4fdd5f60833f0d10726fad350a97a0bb5407ce0bd4b80bccde2bc4f3951056276c775def2945715178b3b3f1666610424e90cdecb51d2107e367dffa08ce29c71d121fc927259eacbf63bc8e02322462b2920e32d9cdef444a25022b1ba2f6d0c2ce7156b4e6f33c538226f8fd95af4f48340218b3da6758d4e3be46223934d36707e56467b801ce72f2247b5d3918074c5aa2b3550f14b50eaa8dd614de04d751cf0ffb66273107b39f5bfa02cedad5df52af2bc43c707e77a4ae8beae35103e2bc826cbe2a363ee0420bd26007e026e07f0fcefd7ac8f95ab9865212401aad706aba72c4ee470935e6d34d5cddae594390520770c7d09713d0033010529008f5dd57c216609b3aae1129c9cec6f25d9280bb2d80a633064d070174acb401d0169bbe7d9b02aeb0dc53b2aac33ac53a35335dd573b69fd3683d7fd4517e4e0770c6f2ad01d02c4bd24cae86011310940da4803c0de20491f274ef3e558189b49b48ad8c5b07c4dfbc8702d0417cb17e14c62e4b050fc4796754cf9ca7d39a5cc3956cd0acca911fb9f52207f2f48cd402d07d429512d7d799038cf76f0b3fe5efae8d87bb90d42741c81e70f6e2cafc2303eee91276d0899d3fab35cd496f421682348727d6fa7f22d9f3f22e440863bc2b9a2baf6f07bd2a053401d08ed67536b57acb11cc7835608481ee77390594d5085d692478db391526b86507acc6b569c3d0b90aa09d654becc73c4f8528153e6e4ac27d4236ed164ea9b32d1b59a6fd75071fcf789801d0c5b6b76c163b2cf21c8901fb058abc4cab75a42c350aee243b0c1d5ed65b1b07c20532a10bd0e2143e3c24fc2aa4d32de6fad0ff09ea37639c2968ad4fc5c48667c1510a35035a97fe77d0e5b830c2f0f95e65a490da0aff3e3a75cfb358343559e1670e124ad2273f020702bae2740ad209cd27915e31002adcbf839dae1c9c61d56bda215718bf3d47ba842b1db7510733c827e744d21217e91516e45f358db2b4aac7b5502fdb8d39e34891543d24913ed745825307a88b510a05d23d99d891e8ea63f89f451849f14b9d97ab49224c27264817d887eac8f44a24037f5d6667d25bfc1fb1a3f718d11a5ddaea331a7c63112af00d2582bd71ec2cfbe2242c560741f0cb0e02d26284a107a845fbb06eda85b2d54f6ee8738c4b09e8612a4db0ea7f1f40c63b0798ebafe75bd299acfd301934d81470f68b25a2dba67eedef9b6b0ee8199e55748ff5e61a18033de2a3dbd2abc1469ffe4770f55b8657d0cc8671d065734e46b6711f4ad083c6d033814e07024f28fa39d2daae762cc23cbcc7d10954c08867890f7eb6c7eded3d7e682f3b33df01ab1707536347f011d420cacb0915e8f6480e9aa1710be6a513eca644390e56904131e18fc7f91946031feed95dd429d8649c29176617465a8ca69d6a2b1573d77df67de19a69ae7c6fbfface5a079246c11e18d474dbe551aefa7b9a7df5281bb09275bce603dc4ac7582cbb3869c37764835d073d32a5df05d4c37f1591b8fba0f9c5169813c33e08e65b4027ad0553e600b1b12c814f851e07eb62d32a6fd4fa41759c529ea44e61f089f163c960f5d48214c839ccadaa7c8368d4c69323037c1d9880d4fd86c7acaf3001b19e858a54fe6ae1960cf86bfdec2735973beae311fa461c76f89799d60bfbf0a3f0905f555d5f0284ceed35fe7997a759937211a47d1bbb109a531307184c9ce404d61854cbbd9c44bc076f7ccb10bbcd9476f925785eda5f260b00fc131aea8b0e0bfce1abdf8903d6457396a4ee723a6076fe1db94a64c17bedf4004e59fbb04ed2dc038240207400d64d7e929154bfd65bde767ed240ae26b43eb00d7bb95fdcaa593d9f8436f21462f6e5f1d665d5bdb95701e8f6f7a2ababb9cb858bda3c2ff5365e9a059c011bab45b65d07aecf0f6402d6685e01cb62c9df093611353f6730dc25718db08bf886d30a5eeae877ea833f07c9029f3716d66c7f7e91b3ccfe2a323046eef503d9062f368c5489350de4245702443a9846074497e27101d6a9f1f05a61625f164a107384a374ad2fd520e9b510fe7911c75352a57b053a0354730240d6b1f0a0d1c1ce41362230207151899ce8a6f35b860c265740bb04a80bea4971077916d01406d6c397f20aa7ff8d7933de9b4042b0cb26251164f393e17d2e489fec8002c95507e32df35802d6e31c9a6aa1788f13b1ccbf3fe3bcf180d9b9bd49f27cfa95b4251085eebf7a07e0df710924d80628836ba16d4cb37820cacfa7adf61ef2a8ee8004919280a9533717b8d12000d81aa6c233d3bf5012285e67e8bb710e98c569924c620552ca52ac8b35af867e0b76c4ba936309d872355238a11a3c190f80d0543ef4734d8893ec627aa9fbd11412ef8fdc111faae561bdd8919d6fe50ce1591bedf41abe66fc4e71876b338ee7b8694e2bd3a9fa36b3130785e9bf107bd8a7459c58ded59d9a3af14e1e5b701865b7ab5c77f207708b279128fc91c81507ff0e1c6f03d8b27b0c91bf809bf2626c698bab62e578dbf339e2042b896fe433a3cb7ae97e075b246cfd04d8e2f07a910518ff1477c959dbdd5b899a7274194e072ca4a0019dcd2ad2ec0807c05d7d5c08d8f0165477dfcad34a4d9f170015e55144b7efb3bd5b0bc11cdd69a01c91fd770762df6caa44d8ff47c86790b3bf6ca30ec974af835feb77e3fa550678fe080d13fc4c7702777a90e42fda149bae4b3757376bddd8a8174f5b32c28a876dca14a56e1641e62cb0532c50034744d041da1611c0a23693de3a8c2248be89cfbbeaea401604f6acd4a60ce9864401560400da2a5d9a72376bcdb97b990763b7f35e584b1efe47bc0fd1b7115219f1a98e17ae111c75da3150e78600e486f138ce6e60218ccefa844225a12f9c18de1dcf46f50802710301019ce4da349d195448bb8cd2f37104f9308f483ca405391bf94c6f2478822a84c13026077ab540df07da3a9c393ea261a5b128dd553c5b3a594a50ef031aec2dbc3f719e8b4127cf6907eabca73902da3d5d8fcebdcb852ad967ff0ee911a74e51cd2a3814bcd98594f493bac5cc330750987bb61bda60129daba667dcd44c785bf3d7389b9ee3e3456e25a08b3c181167a3b2952603fcecd875da635ae87a58062a54c0c5aa2f647e9f9e087189b1892deab25863532637da4707e0b58acd05da9277975877df1985464d3f6b2d6222d61f652735a0d5b7306b50506313bf26078390b96e44daa64465efc9aaf13a015eb667237372012668981d43486cfa1a168292ab024b07e55289300bdabaf02265185a520c8a9ec84da08d6d3d2074f8187616c2f7257d6bf27b563207d0f23a9874daca572cef1e49d99b9b4ce835094d9109f6770e40ae8156f46170cc0ccf587b07b13441e003dc124eeca884574240df96fec836440aa12dcc91b29c4291602ca5ca0fffca7e07e912f0a802dc1f3984f2c5004aaf3e7330a72c86680ea3cce89f571677d78230c5dd14822103df6a9077dc3425ecd5073e1019834177bebd012ee20cd30f0a45d2744c51eb22f7899c06076f6adc4847dc69ef8cff4c2e1184d17f2d0c20331a0bed33051c61c4ec8b6fd589d1c77c6e03e5c7346fdc8ad0c799acb956ab4d27495c63961bee385ff7f1d21a92c822ad98ea93503307b2f9b94011dc98ca732d532b58057c2f7a30594363cec64f4efbb93eb515fa4a1c6591200a0347604e85dc9d6e9e77f2b6b4e84fa228ff0eb541f8d521a844f69d28bb62bd053136481a07b7aed710e7dcc1c5b852d67a3c39614f6558a2862783fa4f58b12160c41fe4e39d77ffe727070734675b07dcc7c08bf41c90dd7434dc0a8ddd4ae8553386c7c64cc8c0827e2485aa277c320325ec09a7dcc92d7306c86bbc369630b667ce60300298b18a7d4695d0928494a4d29474210747fa56e301dcd32002feb5092f52a20c9fd5c91180c916749c00e2647575d6658beca77e7c070d9b0c6822dcf17bac3bfc584188adde1906117a2ecbc5047eb5118e91c4ec9974838b070f068e1a73dcfb17bb513d670dccb70dde22d7cc9cf229d2b42812e31e08e7db952eb05800078c73f49203de14158cfc2e9ec2465c4aaa97bd3f9ce216a60953df2a0056db21131f3c8a6007d56a64f702de29c46648737a36e2ef7b620843281460865461c21b57e63f3f4e8194fd371d072cccab8c04de3a1a6ccf53bded13941744dbc978f67218e8800f2df8d33446fbc545a30d5303e5934669de5571e1fd7bb3fad1fc8b4da753c3efbd3f40df2ab7bf3c683283799fa3b8410b3fc87e0bf701de5c6c9bb76a0ab28db7e7698323db34a3859fc05be4eabc5448d026fa1f5a0c07eba6494004de64fd01238e67921f45e0800463a046065bfbace2a9fadd8958febe79d6f2710b339c431cdc01de704af6430329999ffa82c60983ef91594712f71fc805eb450b5ed922f5d43c07fe2240a207de876ffa362b1c028458de8c5c0b934bf8613540f85c1bed5f31e0aecd0f324b07d80914a20ade96e74d53cb605b832d649a0ba057d75980e74a8b8c8cebf846e21f01cc7844b6826829deaf79150d8c9b60c9610d38802d04a75ee32607d0271a5d379f0f66182a2b3b030754c042deccc573b14e5585fdc705f64345f350399fcdf9f949c5814c3e4865edb6c819038ca383a7ded9c22ff59669cda2cb7c2301a915725c3949cdafc648894a66d36f2e74051c0734a65c9365deda8c8ee3ed290ea36fb4324e35cc4b9915121dc7065c83c2dbdc7ccf898028036e826ff8e0062d01ca187b46c52c8f15fd0d794c21feffd15a069f565f1c8d8dff742c6ae20d16f3e01162dc4fdc090173b530b02058756f2c6b8d9326f0ec882bcc324d4fd0d81bbe82c119e0238ca8307d7e8c7ea7789aedd6cba55ee661fe5baadaed99519dc721121e550361b9739fe03c3bb463bdfb35ac422e1a3b7a16ecfef905ee6e92517e6c5d7dc1e48ed94900e0473bc160c72872d137f5852d1373d2da1742c51a2936c8a2c25db967be94520720a1e1762fe0533101807c200813f9528f4e89c99862448ebcfa22bb21e47e03cfe827695b02868981e0790a56d936830b5b263c601b51ef71e300fc7c617f3eae66cd54be30a6cb4603ae34a141e07c8018c98185aa03967ecb68dde842c323504893ed5de8da0552070cf32c3e076fee13dc17e08828eebaad3748c77c91af63f916d87a8eee8fb26808aa3a25dc420a29683007509cea2102e09491af185701550f513918878cbd07c5479571223765ff4845a82111c8787d076b1d03db1be09b77fe6568ab9e7447cefe8e43733b93466fbf49d1fe781513d04eb8dfea100347babfa1e0a0f817ffbfc1eb36e782ed7ecf5b4716e9401da7316282fc36b6059cdc523b0b7d9b13cda401e0c5f8578b5736f039fd617fd664bdf632e0c90d85baf22c2791d3b9a7f28a0307e1baa08e03e0eae30d778971fbbea88b327c98b7775ab1373949c12cd114d470ff06902021079b760b4c05e0ff9319815fc1fafd7e1e128d0bec652b86ea91acb6405dba22a97ca2781a613abbc121e2005bb20b59fe0cd14ad30cd6296f0c368989430f9ebe96489ead341668a10307e46a744e1fe22c5eedf3925fba00f5ac12e2489e5b823057c857e7548be0be6d613123472207637adc9d03e23953b365169b773c383ded305b629b8176faa9c0aeadb50d552381ecb10a080791b9542416e252610ed28387e9cd8762e37898a6d1c3072da3d273b242b42d0705580fe75400e29592cd782d39c51264b8f60282101018d2660f14ebac68751b0a52572ced78074b34b1dd0be295f057cdcc996ccd7eaa220ee250e5d4feae9effe95a484f89413defaf79580354cf6ab6e299e75b5dc27ecfc79a69652dab8a2c858d485d13618cab5f5fc6e93062b72100e2a3897efbb8853d813732b0c3c521bb9b4b91588016c2831d4fa4da81831d300751806bb007e2c7649ebb48ec4f4643f444c5b73232915ed370cdbfb1c0deba3b288605dd5103d4cd5095e2e0ea7c6e53094dbfdf4888ad24b6f75f91f9d5f20e91b483889a432108744d07db34009702e41ad3159f19ebfe31d5bb00dd1422f49bce10fb61eca856ac206fabd530ad4f073c84c9d910e423c2d35102472985a7dfbf4f6380af794e375535be5cdc7e0bc816231415120795b4f05c05e42644a84c4eeb404e99859dcf789fbb79b3551e2b33df3358a715a94557513107084ea6bb28e42845759ed67bbd3d460f82142f71c1807631a9cc68e33e46a56a8e0a404e1c07a6343e7d02e44a96e76006b8aeea9eb7d72c7635c36ab90ef0230a7d13030f6f068de0b36c00e477d8bd33266b6b00dba6ce3566efdb442414cdeff68b8b8182bcb98261105707f0a7089302e47fc44a19c9a8f8918b53980a7807c4542e8be26f714d14faa0034f12e9073c07d9d6045301e4a30a9527580577ec2f534c9f9bf4d23be6570524159bf4878d8023282bcd2c07307fc7131de4c0781d41d70a0cf180eb4ec6f927ab6b0a2dd29e09b22e8f36c67daf3a531007d8b17e9e03e4c221f248eab1f83c2e0e34baf7bddfcdf8d36f4bf7be455503062d4de4483e075a70711301e4dae40d2712d3b65b6f4c6aed3734e23f732695c1692bea3c0424ab67db9a3d07df140d5601e4e175d8522a94881d90428380abf715337e87592bb5b4d23d3312912cf3d3370727a5785202e4e770d8a375c07ecbe8e7ec765370bc83098ba03d89783629e07c5a48dc350d03d11bebbee4fbf7f477c4e5151919679bf034a593d489102c4557083b329334983a695820070986d56407e4fcfe06a9255cb3ecd1bb2f94ed89bd9fd1fe4f8d6031933747489e12d819690757987e1f27e4ff0d74b1a1d618f363b0741007f71f048ac36b613ea52c2d443adc40a4f80c03d0d4595ce625fe33c414f5ab52730685b2f0fee19d2f17ad2e3afed0b372e300c44d7e0d00e6791c499d79f020e0589a1d23d00ba1b6b4db39a0f858c77eafdc9d6767d63807dac69e7320e6f09ad3b47bb78a8901b20c5df2b7f221b016b5dcb559fecbe31f972eadd96300e81f9deca60be9f0f1b371418994cc8c737929ddb469e61baf73c400641a0e4803edd242f9e8235cacb4ac64f9078281c17ab38ce20d447af3d0d2189a429ab754449b3d3807d5326a2f01e85e136daad69bd8c6fd79fa1ac07c028b5940b027e717cf44d0ec9c6d6e8216071abf174fe8e8bec6cfda5a8b21f579916553c0e52930361c1c34cd4a5311a1db3adc420d0807e68b4e0708e8daf2f84bf8c4710910d6b6a687e67cf144ce239df40af5986fe5654646e67503246f6b83ea128d86ea3d4bf31b441b93a7b4b7e3cd7a38c06e90de2afe0500c824852822079e05bec701ea557c2d9fc57f6d8744fc57b22fbb1158fd5c40bd4eea49a703252c148f1e5a03a95b12bdea9be8913a584c7f44468cccec01cf26af9a085782301f6acaebde89548fbf2703d76184f4eaa1cc2bfcebeb375887fb9ddf3bd744ab60d32eee347219eb204f2744f37247072424350002eaaf6838b23b82387396b55559646ea62adcfb0962d186a5f76bbb4826cd935d07af11fba316ec4aab2f6ac793da03e9f6a6375de094cacc4d56d14d8c3e8c54f192b078b77a072caacd9a0dec7ed55fb1555e9af83bfb36e1ad829987edd776184ebd9607fdf630f125302500ec95090ef059fb7ea1b7c8e8aac8c28d9faff5e9a81a6a052714838210e92871072ee141dd01ec9777567dadd1a9b9bbcb2a9daf06c24753cdd71d149eac39c957df517f346cbe782c1ceccbc48619448b9ba7bc884d1b9e0d195c40dfcb48ce0bb6055b8cfe70734872039e51e181ece23e24659d1d9b7f55fd3871609b23f917a9c128b189100e3f28d312a10d030752f8718e04ecfc702fc9d376f7e3f39d54644e53e4267bf549daa7db310766249d3d611d4b0748d7af21b9ecfdcb06bb03cd6580bea08924181ab128c7693be922625db883cd0c3e64f91607cbc8f20b33ee719d1771e6921d3f95fb5c453c4d143ccae7ed42caaae8e0796aab34040c02eab25edbee7afa83f03039369199c8bf3a122a7b7ee17da3cb79d6ba00e9d4ef350f9030078f081e8305eec2fa9ff1251bf86f28e37059776a8f0de9b3886a4587439016b69febca8848071b12834e09eee8c2c5c485143af0070973ea64ca20d55c8ab764eba514a7d992e76472326007ed6b1fff4aeef51c4ed70efc200a81b80a213b5032188ee849066caeefa2784b9379b4e20407ab6f974706f00094540a007c83198272b039eaca87d7fea165f135c77827123021b5e89f402efb6dfaf014ee4b2cf30726e79944e0ec7878b0320da939cf36beb21c4462c6b46531280b185b0c84ec09f01741284d3d243be7b6acff8f2aa6a45e46558fee672fbac1a370931f036523075d57323e01f080367edc45ea5b11b27b53ffd5c6844efdbc05b4d4424653ca7befae700f4c5e9dab1df08c4cc6d278f9a17735c6d8d1ced59d11ea457ceadf3e8b83396bf81e32f67e96a9bdf7f0a5d6f6331b7377d524edac9038aa4eb9378a029d8830f97d34486a9357c87107ce5e580d07f0eaf32c2df02616f08524fec9cb53c2f91140ff783fb90341d643149574386e07919c084201f254a67242550768a0c26472fe0cf6cfc5fbb087a00e31269b13342b23dfe03307a4f0daea4df2593f404f814eb9b14dc8a31945d9090e8b26a2da566f3794dbf3cc39f7cc52031013d298f26fdad99cb1d908b8feee1adb27e54db82ae55bfe66f41e6ecd46cb36ede82e82c16f34f2798c726766ef7ca386db99832b6d99561f951f5feb997197e918927c602b2507304b934901f29b0693a7f7e6db4357a448be52a66e70ab0d36120c189d947ac1d9431daf59ee22a448f400197222cf51d45ac8fc0b24385d6191966f0a74a9d583dfc751bae61db54207d32647a61af439841f52be0da43f28c37a33a17bc0ade9798e290b3886e1d1ae6049318c170768026e8901f46ae98bb1b9269b8eabfa7d966f50ff4dba8288f57d677a03d366a24293f10f07883629a014f4752fd6ff278fe98faf5565020874f84de9a2aec2f0d9c3f7818ba7bdca6a4b072e1809e702f47e4cf2d6177de8f9c1f533786f61b8ecc8904d8e32a6fddf83bf36fa27420a07989092262ff49d774a7d52719780fd52d925d05252ec61ce81194aa424055fc95a5e95855103e5d9c4a6f4a252484a3d2e3381cfb830000e16aded427a3b603962440316de38bb2e1f62061541fef4a9152062060c5321d01167763ac6cd38bfccb66ae335abf54ce3ac70055c4107c4308a430ff6043a5ccb7fbb1d6cfedbed61d9300676dcf86be3c8eb0fb91cc92ca479d75f07a101567001f605650a076369edea0843cb03097b04ee6198dcad6e80d70e6c2e7d7ebf916f071ff7d93303f628bbe6f7e68e89091241c7f4cba66da717bdde486ff9f14dbb03bd94546a60033f4a24aff64d3c01c80dba98e1cc77816c0bcc3b0b3e119e36b331f739f6b405146a4175070fb97bf502f663d2ace2a877c6c56e2d2d9d284cc1c39a9d2b022ba2d715f68006d3f37b7d077ec81ae801f69024438e001599d41f3d5c07d218c468407ed6feaf8df732312ec5eeb1c809076588d0e876f6af4421992cab3580835ebdb355f1dbfe27e4b43a489340b24563066842a23707fd91a71c01f6bedfa7ffd62fdeac965d4f1bbc8e112c7d4f6bb5b26193dffb564316d6846f0763034e940af6e069a132462bc91872d57de616818f1cd4ad74a60d174f4fd013cca6094f4507cc6d7620c6f8262a0e393aa5e5540449a4f046df28e2af6f3a5664aaad19b511c95bc0863003bc29d3f0f833fa5234d0bdc377527868e31927974deea2e35514acbb89d70af24589503e077536c6ea62f837a1cd030ba1610cd204e859c4c6950a7c69123a9dfef17f48a297550f237e077b4470191ef83caa83fa8e2e831ffa5881347f4475e0f1c903dfd9ae7f9225ef9d9bf56720070a9cc43baef859b9464faaae728a722ab0160fd24dba51a0ab3e71357229d3f9764d1c9e6b07e369bed70bf89995368a4c5d16ec6aaa6ffbbe8724e57998fefdb1a081bcae1136d6fec47e077451f8b901f8b0ad51bd31a05daf287684d0e2de50d882c10d6a64d2ed7ae5897e7a74d22407df6f78a003f8b87f5e2d1335cd467c2c7286b4a301e502b1678a425b62d8cc67f7cdbf584b07e228297303f8be9c4a4ebd387f03627d89f6595d947a2d7f6c7ec4eec9c13b4f5ddc959052077d6b3d6e07f8bfde1cf0aebe28f909a065ef2d4cbd35baa1b3b0ae8ef23c0b0502fc8efd6407bc278e1405f8c870dfa88c8ffd6b15da4383b7cceacf7e8c40529dd5aa67c5ba0a1a5097250764b4b43e0cf8d3fe8b7f68186f720df9cc34f49b8f5eeb6fb8d7549b55e5974f59f5d47729079cf7235f02fa14c1ae38dbf6c4c02633025249eaa8bb6eff2bab651750448e9d62e73b3613071559509206fa1f332617adecc2e210e7dd2f0e5fdc2dcc2d4fa937dacd501f21c17555ee5000fa1f787039c7113ae922984a19155ef5f41a638d984c0395be0dbcceda837d670773c0411307fa30fd2bda26cadd428eb680ad6828934e46e411287fefacf17dcaeeeb14c11f07bf7a5fa702fa421b3ff5bd5004e7eb5f6d8e342d8bd7f48ea971c6c992bb0faf49a2b7395f07d855784c12fa45f6bb807d6b86a889c549c28070642a6c2265afbb5f3d2796ac835d5d3d7856ad7a1cfaa3cd994c1befc8bf1a41dd2b399a956b3ce38f381d30645cb096036ecbd03103ae14774dfaaac8cc4db00fe7de3c0775f1e78eb039b6e76bfe1b0ca6d50607819659f26c03aff12140fae55a23b17e8f3d927ffcf9b6929b4913600c06e65a74cc5b8fa8242154603b076ba83ffb02faeeafddbbf2dea320a7c13edc6ec785dc49b3213915838cf205ab8578d2bb44071a1008ae0cfc54af9d9047068cfbda2d085dc0b74a2eda68802ea1a68c08c30b2535cd0f2407f875d06401fc6e51db243ffa922fb25d5643fffded80f93ea4c6d8c427cf372ca825d38038077fc06d4c02fc84d90d58bcf05d633622ab8f6ec8478bf9b4ca6682d18988359df7b3968b3c00fca4b79773504bbe3d44fe7a53fcecf0d319d7797f42801bf1e87db26112153f07ba1b51c302fcdd4566c3d3e301488769b6240f35eebc1796bde87c481f291d4339103f963907d7e3493107fe26287b0065f6175cce44ed7d100539816522087edbb681c0761717ea1b0069039e8e94b6fe3b95b37f14fdc80abf3bf09238535e8f00611eaf3f70efc19673d9b9e2475e8e28b4f9fe68f2b129d464a1c4a07c063f5a7c65dccff1f3e01507e21725e5d50fef001407c7515d9606fe74cb7a4c32c852237b9b3fb2c834995d04b9938073f33f1e9897f6f4569f7107e20ad70201fe8694c41db70d935f2b73fc9cb99b0db7ab4e3a032fc243de568e5888e5617507ce63bc5c04fea6df4b507fd192122410494957ae17529bf312d8ee40e9abea4c52354775201ed88859feaa3f6cfd565165b7032255a8a61b08c97523b5032d9cb9c2ad459138c9033507769a8afe01fecd67283df9c0b0b6122d5745836ddac6adc0c05bd482e43c8ae4678d518c5307205e266202fed993241b03720d8366cd3a6dffc5c1e7ddb1102f9b8e2350e7909859cd9302039037a3a1fedeaea2108576fc60033ec1e12c6cc5c8a91342bf5db05abfb83421d3cbdc3b07e75896da09fefc5485a3ba8ba254ae0615dfdb55e833d392a5fb113d8f218bac0caf4a2649072c57973b0afefeb81d337a6b1b7b3a0aef4464e3a4287f008cb902263582879805d6593b25072d9d3872010016486d150000005ac60300ad385ec9e10001ee10010016bbd3bb2c0ad3f7fda708af13bd8548b391ee99c174f4edc30468534955da068853018ca894cb3d02aaf9b96741c831a3970cf250a58ec46e6a66f269be0b4b1004008c43380000000000c7020000d8e0572300000000000000000000000057240404000000000000000000000000000000000000000000000000000000000000000000048853018ca894cb3d02aaf9b96741c831a3970cf250a58ec46e6a66f269be0b4b2eb3972f21014e566e0021012501facc03000000dae49a00007d0584d83d08ca89f8e60424ffa286f165c16dd8752e4faa4d8977221e6720678d28e2a8d08674697d6ee2ccec36f0e207653788275b619392256e509be04d32950d140401e86f380000000000c80200001a1ec18d000000000000000000000000bea404040000000000000000000000000000000000000000000000000000000000000000006d920000bc8b7734da65d9335382527befcd09d6747c87cb7f8194d2339744d63b1eda3deb5300019d8c24c00cf521f28e9f3fb9593827e067e57554090d6604f8c722ec8e260702a93e7b01000256baa59c86ef35c01c7b0b212da9ea1f90ad5538ae5543cb27254e012c2807abc1d74001000388b37554f532ec8de40268bc140ac64434e6414daeed10cf40af6e24e25f075a77e997030008c01130bb5f5e60995c0ae0d43c13b3a6b4c0936b04e4d1bffe69d4ef634f00000908ad4e6acb3f80c6ebe358169d77ed059242c2a340fb86acf82ebfd60a3107d03546b3030009422727aa892443c8dcf7b5f88c81456f90c7fbea64cf23eb31086c848a6d0306952843000a3bfe1f6dfb20eb1ec1929c74f531db07d1a5460378836e6eaeb22ff99d34078f59633601000a7f86f6a5784a64b966cdafcdb906d9086290434a4056cf8254ad1638f56407cb5eea2901000c123afb84dafebbe1a3541cf72a4c8191f5772ce9b17cc416035d261d5e6303c6779886000f6130d858c3d1ff5d62c5d48f0fd353b2baed24b4f0e2ff118aabfcf97641079bf2645804001122d392d7ec296e91d37037ae4ffd7895f313fda5c8ed332f050e4c58341403626f9b5100176104832bef2122db70c29e0f90257de54fcf83697a2ab9a68c38bb6a9575cafd51fc0017e1452c25764f4bb652f120e22237389ca4e6e7e17257565e8566c594f921074fda6f80010018475cbeef4a9a4ecb7bd1af6dee426ea161c4c5c33e24ff786acca6e0643603d5bb46b40019ec1894fec2d2c419b5d3e6b5f3bf043ea871c1d6398b5b5f1836457a8827075336f11003001cc8c223d02f0e3401ce961bd8571b67a0b83a038354587cdcbc586618237e9a1b79a6001fdc58b2aae2bca8c365abf5a777b25994b935506ae781567236fb798de27c0763269d1e01002255a938145d87f0dae088786e93997491acb13227c2bc45012f74a2e3d033031d6780470027e55c48611983c6e8c014c93607a4f386d7aa716687a407afc611cd06d9110af3e95d002a8389b904fd390df2b3c9cb618ccf6fb5bcc85996deae58f78eea42a3e12f0340d5b58b002da78296018be4f0d62a199eddc358b862c82aa3ff89ef077d394d6561747d0720beec7d01002de0e27d7ce2390f0b18be0fcde16030413a12052f1d5b8297bc26809cbd5cde8d65d6002fae5fe9e7f1a9f0ce107c3247592d0934dc5f8b48688a2c521126b0a6667d037c8e8b45003516fecc039fe19e63444aebf942b0fc17137cb9cd0dd3f298119af0e4473803d04d2dc1003b97489406be07b9f7de319d1d8ad553e5a25d0f0c3bacda45d7a55e24e560077fee6d8802003d005b330e28baf1dc56e4d86973d5f9212b012b5c8735962cc8e64e29c74900003f4699ccd0d55797edc7bdd005f4d8b0bb7066d03bbd0c422a1dd562dec07d076fdcd8370100423f79877ccd3fb67593a1a568f80fc89cc3ae89128fa142cceeb86e7d193b03d8a64a5f004471e4ea1250be5f5b877e2a435af80f37f7d59b644fa5e7e23ebfeab2241d03704e0e570047c2df341dad6a5000e64d6b2414457f763493e713434bb8ca6c932a850c02f210f67f0050313a3735c43b255a1b250466ebd0545a95ef3354a9854b1d1ba08c2fcd56070d1e4fa6160052bbfd1493bac4a2df9597eb79ffc3b0aee2ed3b3797cb705c78e2cdd21c360726016a550100539fa852b5e5a22b6588a67111dba8011c02d52b541f859cc1898e88e35c10079b8f16c70100557016471a1b0bd70d64600df5121d9eec51908352abb18d69bf1e0498f92203b9508f820058ca087b73e139a65075f882beb8cfd90cba249861c5bbf772c61e87dce575031144a671005904a65d9bf7ee82239301c851fda8315ad62729bbf6b12ed2078ff211c47107ddb9737406005d5f713a1770f11a888db24b7ecb8744267bd0eef48f42f69eca83b592342c0739d9b0db04006134b9e154be912633ad59b7c5838cc2e84d5ee5da07697686a58d6fcb2d1007047893f5010061a64d8ae2a53eda9be62cbc3696c9c2cc6a5529776f540571353fd3815f2c12a3e1f90062a911c1e25700b5cd6e0c736706c928c4e2b7c523f571e1db8d440e3599750000632b4432634a6fe58d79384462e21e4b3584e605140f2f22ba1f060eff8c0607f5f22eab0d0063c41ccc2ed304b701b3d914d5c9640723f10624add03b2bee2f8d2dac02500786e8d185090065773dc94ae9f7b4d683462f9cc6794323a85dc10763324f1688d042fd731b0344dd607a0067ccdb2a26fda20c075edbe74f7afaef20720a1bbce4cdc54e68da39912e0f076563528b070067ec7474451dd5f6f86c87432648dbd6c171e2c7a0f435f55d068469d7b71d92fad42200680def733accaf6713c045d4970ede4ef8158633f1cca4eceb4a4e8f27931407f63f9b980100687a055eaa5b3a2dd8e20d8aaa2cc19a868fe40289ad146f9974b8425e744b076c002a8b0500691283b6dc842b0c62110df4960738855a67df2fa12b378f27fd88e303165d073d7e422c0200792b29fc7714c918b4a2d77fbe04069e646bfd65917ef86570c8271b2c0a03077ccb646d04007ab87d89208da2e8d158655a270653fa20424974bc4a9c9cb2fc464af18147075b594d7772007d6a49e7e3f2d18035838cf601c3ee422f3f771730b5a0ef15947c5529d304def6e4fe007eb4c6bb029929b770922278cc93492b2eb675fec862e3ecc86e376868d300073ef1c6b80200882ade22d8a5f2b35dad7367ac339461ace00032dee1baf88612288a4cb268076a0235d7360089113fb94f8b9ae04b1f1638b1644ce36a6bbb0fd755b5b2b8fda55d2d435b07b3839ede0200898d5703ee68d65aac1ffb4464d6558ddcb845346a8b9f819405a574f0fb0107a7b50a870a008ad6e7e83101640726b64e9be86498c361139f94ffcd54e2c632263995074507a74b79140500913e970d75da5fe5aeaa6363f40050727b27f167ac47479c0c5ca2454ab71103077fc5420097413b97d3be4428c27643ac7b8f528828592fd16d0b3bde326d4e04f00364032cdab066009ff8cf04abd62ea34a4e6cc966e8ffd93a2515ff03554ee949130506fbb9050376f2fa5900a1f79c3acfe3c71e7440a1c45c5dba9ca414a5daf2108152500c4528bf425707831ca04b0600a4c4775eac4d4114debbd0cf7e22bc3ca27435f9214c5362bdb17231e89a1d072179ab4f0700a53e477f3d20e2e7c4c037467286f23cc054