0104689c50a4b16d18010072d9faceaaf31834f337abe6240f05573904a61bdc1772323c35775076cc7c9379e1828352322ec40505b68d814217782caac9a589276100080045c7370000000000b6020000ca06ae220000000000000000000000009c1f040400000000000000000000000000000000000000000000000000000000000000000004323c35775076cc7c9379e1828352322ec40505b68d814217782caac9a58927615635a326d904e6b09905d904c5047aeb03000000dedfa6000000009d17f863f08b460f53e19767c7bc7e33a23b4ba9d8952451a0bc6a5204ed3cd98c60a6e16e6b6861f854ac4e1b81536751c0c8045fa98bdc562b7eb7e2a940ffd62e0408001cad340000000000b5020000a76ea222000000000000000000000000a11f040400000000000000000000000000000000000000000000000000000000000000000004a6e16e6b6861f854ac4e1b81536751c0c8045fa98bdc562b7eb7e2a940ffd62e1aa4bf534d04da8af6044d0449047ef503000000f6dfa600000000ed14061205c6dafbadc0c01adb034dabd689f30a9bfc2cefd6e90e53d90dd0446a5c188d766c0d64baebb1ead042435cf2d83d5012b3689d7adc4b20a9d060c6cb3008080025c7370000000000b60200009996ae220000000000000000000000009b1f040400000000000000000000000000000000000000000000000000000000000000000004188d766c0d64baebb1ead042435cf2d83d5012b3689d7adc4b20a9d060c6cb30036e88fc789104e6da440591048104eeef030000005ee0a6000100003916300b40dbf061176a04b2ea50ea5c09002c6ad66123a17e35606ed613e562211ee25693183b2d609e8f399a5d38449af0e77783f9baf8eb1124d7238e5ae1472d0c080067c7370000000000b60200008fd2a222000000000000000000000000a51f040400000000000000000000000000000000000000000000000000000000000000000004e25693183b2d609e8f399a5d38449af0e77783f9baf8eb1124d7238e5ae1472dea8a79523504227eda043504390462ed03000000eee3a6000000007914c4a2d3ed4577009899ea630db8acf3a434064aaf9ec89107aaf3675bc62aa76d4ceb745ce935af1a33223ccae70976a0096d827d147fa9bb869f6be4200f8a381008007fc7370000000000b6020000cab7a222000000000000000000000000a41f0404000000000000000000000000000000000000000000000000000000000000000000044ceb745ce935af1a33223ccae70976a0096d827d147fa9bb869f6be4200f8a38922d43567504c290220575046504d6f003000000f2e3a600000000a9158cafec513739d2ed72700fe9ef1b4a62c3d0b06ddf6258bb00cbac2cbced5f68c6da3c3be1d3c3863640ade174ca1463b019e1b5bdafed225b40f1507fe41a671408010000000000000000000000000000000000000000000000000000000000000000000000000000000000000000000000000000000000000000000000000000000000d52000179976ad135ba163623b9c1de8b55a73a7b32cfbe2852726261930610aa31996bddfc5002420729d054e69de3e4f3770b6fd2096cec8a5e9b9ba5e53440eb17468a65c4ec52162002da78296018be4f0d62a199eddc358b862c82aa3ff89ef077d394d6561747d07f3401c8a01004cbc411a8e488d2e52bab41e6ec48941bf195eb1681f3835238fa07ea0610307f88f59330500666a07962cd2f8ad48a84bdafcdb3cdcd99d5653276f5309e736b6f9a5e90f0704ea06648b00702113033c042655637048d62fb884df99949f7621b22be52144656ac5d12700007f0bda5964d86cfb398c2edae7c0433a0c2eb946fa28af93a298080b06132d07ff4776630200afc56127d93b6611e81283fc18b5b275a8556122472cd59f47d036a8150b5007f0a14fff0a00b0e7550e3cd8a96745c050ca4b979c07cfd16d4164f619fdd671dedcd5c77507398e937e5b00b3bb71fc44d3e2385bbc950884068d05f9ac044e1d528726aa8e06945c824666bdb36700e30991b3758cea656a51a9f8f211ea7804ff961797b8fdea60380716e6003f03f58a0d9400f4f878df7d9619ebc54264a9cb77f2017f7a7e8e14062b50a955180778694707f231c4d4260201c7c621afccb6f719baea6c6fff78a85f6e6f864ab87d32b1e7080dc8f3190793d20630090221e4d35f473b3ed104273b8e2308bdbe6df1ac85b879da4428bb3ef8d4bb3007833410a801022bf68fd4f90dee67c97890a3546f7adc34491aeddcf274e6f084823b9a4a3b07d139b57b10023df8d1547b23af013aea11e30bdc40714178a963195a6f91ca9bd19e2f934807e5e7fbc001024a80bbc5a335bfc23a946b628b94da7032ff0a2d67c2e5464d8f049c008d70c22a9d3602712937483d97352e8a0ae8b4aabc3a3938695f7dfaa50fb9933b7e68e7163a76b555ff02716aa504f36fabae1372f993cfc30acb0f24ccca4b8bcf16e00ec43024bc340320a16d580275313e71456e2c4e28097730a26cd5d2d14bc8348b4350c0fd424c323bed6f07c24dd3c6640284c9fff48a0a5607246d1ab822e70662cfe0ab827ecd097f118d9957ec286307a5b109e3040291ac840cb98c8721ea6633c2ffcb3c7e089728c62734dfffde4af7e1be932407ccd79a1803029492d94d9668c9b420b8ccc4f49564adcfdc55d18b8fc9182407ea74d4121f07c6be661a03029a2a4a99329c812ed68e64bddef6272f7098d404fe6b5a92b88ba6ad72c03807deec808f12029edbbadf6c25d4e7fb4df6c7ca4c2d5ad799abb29e5bc3722096e7d7221711aed7aa3302acc9d1e083cf69bcd38391af076c11bdbffc2459b4b0d45529cece43d4ea1b07fd79c1903302b46a40cbc0e564d0a2b0ac33d99c57250e537c06914c052df5f617e660c25207f1acb95e0102b79260c3cf5d50bf44095e8701af1555af0edb4f349d29ccdd0ecfe2c4a122c252ccfa02bb9de9ab8d35bb759a3a2c8869cb613a70c878b8240c1816897bb7a7097f2d073ac536d36002c058aded4ae70263c74b5b8362b0560099a25893fe33171b889b831bd79b270778b198730602d5622a569142acdbd8ab50d87baf10f4954a33f9db02c9bc6a82dbc3c59f1507767381e10102f0cc786fa2074cb358be3db94b63068ff212e86cf3a47904326e68e48f4c2e07b31916811002f16f81d68b0e2c31f01227141937ae661bc662dd6ccddced7432c03612b31b07f0c5bc870b02fa9312487e949e9e34f47097184bea186fdb66fad0919e255dc1d72b519b080ba40a96b62c01040f1238cb29bfa55ed2a495b6d7cb0018559b6a79aaedcf3cdba0572b0fe25007154154ef0d04160255563e6dc3be3413599f217cd5f33d2220b5d625a855a1c98e30324c47075d78bbc60804323fb41e10838ce03d488c4e31b9149451b1ecc7d964dd91131f12af50bb680751b3ebb6070437cef0d1892d5b88ee0337935b1a574b4bfde037754510dce752f469740c6807fb37c39004044079e57b77acbb04e7cbb92e62807346803563f9ed3fc510ce132f30d60534070c683927020446c0c3357fc16f07e7e60e1fb9c95ac446fc907627e7fc01c4f9157bf08d65000449c4d2f12f5a9cf7668e75d5bc460d26f7876e534dd197c7ef5e25246a186407ff96b94301044a5bb2ca72121bb21083586194155174621915780548ad101317129c776d230765530533010450cc56493409cf0bbf82a85310c80c2a83759251882fd5d4f6f5ab5235ae6407a6acc9350e0462616a25d3e51e114732a357e080c75fcac51e748fbcfac66dfbee15ec0e67000466b7d8ed0b8aa14d1558aec291da140bdf3c87307838b224790c2c710f2b1b075eda42d329047033a21c6e850c97ccaf9d2742b065788dd08ea9667978e056c16c7594177c03b6d72ede0484e4077fce3d238aec4ba2f974eee4d0c9718b6aa160f791baef796fa6686d03073d3f8304881f7c204f35c1dfe67179bd193537e4bc02c914fdb78a99444a582e3c3e09000496bf295569f220298b9197f8681f0a5dfba3cdee91974e4bd379c5b78b0a4107513a078838049fca4802213195867bf3f02521a540603215732cecc3cbe2911542d894275b07a2c271142404abef2aa6d96bdfe3d5aad369b8e4312d874a666e75f2163b501b6e1623751103bf4c07fd04af8d058096c7bc8d2e32f354eef68118f3a1394890ae9f87041f2a26a68d068a0ee6fd04b308eb1c56096991037fb5cf010fb34463bf5e20a344bb655bf57bef8bde55fe135b1a04b577b70c3c06bc788d63d3c9196c1f48267851a0b1b2f6cdc1f310f3d2854a4a234d5f04bcf8f3c1096fbc55c36983c1baa010615c4b66bffc2c9a10dc36d99120092f07984062101504c0d5444c87cd5a59504e45246f4df11d355f21028810c72a9f49de15afbd200767bde9eb0404d6cc6450511f4c1d60658572f351c3b212fc3f5c099a575b4d7c84c1b218520703c26c171604e88c7b3bba145be888e706e71323b901e409e84c456ac72a5af3234baa425dfe1fb535061cfc109abdfcaefc11ce2e456e3fcb1b10fc047ffa99230dc75f222a448c62da7d87d006453df5d9d83e376126dc552642ae35867c4902dec72a8b7549f9f52ddabc4d0bb6f76bfd1003065cda2d98a7752c59e00697ce429030922d8857f814fbdb4dad1511c7498b1e07340ac64c02066a7a603b69420869edd7cc6ea8320026dabe06dd18f61eccbc94cca543857f079fe109590206746a12f65a11d8e5f83599ebbf226d13f867d550fe5a0e7ecbcfb04161c9020780ccd22b070679beceffe3019f134c6febe3f6daefb265c4a8b0988cd6c3d91cf7b63b097dfee4c481068b4fae0d6a6d27f25a676ca3cb8b37679167da2e8ea28a0aa912c261136a5c076a48ef314706cdb8a24a234bda9dfcfb2b6afe46f9494211134de716799e305c1a54a7df7107b0c519c20206d6627672accf2b4e4011566127791031cd92df090d4e73aeba5faee20e326a07fad59f590106eea12d6655176cf9eac8e1e5a73d241caa9f85d654cb7a3cc4aff712d17d1507049021e65a06f994aaf02284a2804e5dcbb4849e5adc7a866745d767d6f088ebd3325ae40702039bfe081110901a629f319d480b756943dd9f1588a097fe7500b9d95028ce5df87d3507bdd30058010814a36d53debc364d561257e6fad68da228578258d0b98d302eaf164922aa3607be523ca204081c055ab9c0960d353567efac0ab9735149406fcbdb8457ddf86a83a29f08210339dac246081c33aea71f9077e5bb5c6c31623bcd0d1a3c8a9dbab7956b9c92b98b30c64707cf6ec33c4a083010002a0326f2abe2f8da36b9aebe9df8adee8019f03ac50c87973628953f0733a646f31108355638adb8e0c8bf51c22787c155b367cea23609371d6a84c78e4c57f16d09034c74817f08356df213a8de31a7995fd16d71333fccf796faf04bb4fbe2e3cbad01985f3107cc38cff8150840615b4e2a0015235ae5b602cd75f25b87dcf112ea05f7a2dc3a52d5c0fe500777e6531005085180363a03086904f49eeb986033adb9cf98fe0af165c1c650fd7dad50c12d07904b985903087449b9d4d3f22d08aca5582e8f80cc237754f66e1fd37f96f98bb90cdb2e6d030c9380ea087c5696ea4c3ed01e39dc07aa63483bde5c9a71facecfe06f7707aeb61c796707a6ff04b801087ca7fb50cf17cb3fb40e9afbb50a393b47725b836e77b8c2fc5350a3193f7a03ec348eb0088d560fa42be0aba5d966302be22094bd59a6c10e31a8cadeebe100ac5baf6a077de0de3d0b089cc5ad7322c3e3afee644dbcf8004b7992188bef38eb352cd5704e6288874f03c3cdce5f08ab2691d537db7a157e5ddae31f06e401d82d0e72028c2f72a6bede007ae661031f60447e08adecbfc7e913d0d4829abb2ce76e9cdc1a7a05fb3395303287d0689a18e11a076b14d5450708b30e3a8fbf0e6ffa847a4b8afc887393b88e3767cdb865d9de89f539de473e0b38132e4da70108d5b0ea438aac1478fa01f1662ed38c0125957ada16f637fefaf573b036a422073dbf6dd60108ea059df7ca64a77dd0c23fe8e20e122a055e64c5e2fcea467dff29e252b3310785270d0a050a0c68db6654720c558e5c92c709aa2441b6951472acf31bcd7f51ecfc320d0a07fc970f8f020a1b36a34d8fa8a7c9a314c55fc61227792b321e5c1005f8ee59e5911959ed5f07634a9bf9040a1d349e02d110b9a10aacb521600a5f03f8377ffa9935b0778f46c39f80db3507aa9ef401020a1df714ae0521729ca04ac16a8e6ba5f97593667d08217f32cd0577ae0a6b1607098e4783020a1f9832f7f4b1261123d6a55774e0214c90389daea755620fdbb416e205c26a07ac7a4132060a224e9e7ed83db84fd6886bad70ed6a97f2492a1f8233a06f2c87ed57113e500315dd4d510a39aef08bf0f7bef60b375062a5c23af4caf33a58643f6dc4fb2fc29be7212803142b3d500a423a230112ef6e3197f3434a9a5518245fb1ef15f67eaa1fa8ea3782c5093807827faa74170a53b5583e27edc57c5b7879febb4fd16f86412b2f50284c79634edd48a18f31072a71a303060a55440c336ed43e261922722750c16ad524f1651762cd1f74460909cef5913e0767a848a4050a5d9509be2938f8670e20433ef573a3e74049c80a099f593df176ef9002ec0d07368a596f0b0a6a77872c6a2e5764a6420248d4e0b30dfee8a8436a3b5b8e702de2daa0ec110796b18c54050a733e79b2f3859363885066fc80a5db6807cf38498f0a5089c97403180182140b4c88496f85020a84a62ec1532dcbf6e0d7a12e437bc538a6b2faf4398b20cb346b8566fa49000701d79c8f0e0a8c1c1378a3d8b1767520953a1a5a48220f4c318fc5495f4c79daf56ddb8f4503f6e2104f0a8c41927db188538a8e87dad9087e79b49365f6538eed6d8ebdea9e46245b1b077e836eae020a9afdb6e5f8fc33840f941811cf906afefdd9fbcf3c31463a4d751ce3a59f45075320480f010aa2f81e8ece824ad9799e88e172eaaf29c729ec4d96b54d63396bc6ae0a9334077be7a73a020abf3722fa1b8d87823fe0dcf032a3126eb328ef102843d347a88b302341e72216aa14c50acb5ea627ed74389e5cb0b7612f418e82ed7e8f832dee4246abf7dfd5952940128de3ff0c030bc04e8e41b9dab351cd14044fecefbc529d29e1b87f11b4bab29cb126060746dfb8e4030c0706953e8151483fcffba19305011530711df8430d5d8cb9ac9e00ceb71546071b5f0316030c146dc68d515d5781912cc76b987cac1a9a34658f130120d40589eb47cf36190338cf29400c2ab158bf82d3b2e144e2ca92e33946a9451fe033f8f65f0fec04c93958531407344d89c2180c47836c7525350f546828d320ed999b3d862df738eb48229d87d1d381eeb91a0780652733020c50fa38dea882a8d2d9370e6901286ab281d8a3585ba27183f66f73725f46630720811f88020c914fd9660caeefbe324c297a9c3c45a1bd8c6f2a47f8a7c99af8204fa42c0a000ca3e18ba695e9879cb849a3cf193853ae9ee74c38404a0219850d453c44892b079e13a762200cb1fbae34f6d9c43e1f3f4fea27aa14af89e1f9f4e0ad0cdbcd81f55fd8da780744f2a73f080cb301c0ac90893f9d79fced6da974691b4d8e7555a7a56da984b8a39e8f7f260721fe1e10070cbf2a6d8c647484e942512831edb09716ced10681d33823e65e810fed3c646207225b1caf220ccdd3b50880dcc12a3cb19d866e33c9075ac23beb722fe5500c439ee1c8ef7c0794dfc75e1c0ce42aae10416ee54b8f402d067e7601b63b85d1e15b9f2d71069d8bde42ae2107adaa42a1010cedb9d76698588e6bd296e9221a3df93728e918c782c786eb96810e3e756f010769205b850d0cf11f257d1cfe0bc97dc37a949b0039b9a2347846926f3d8d3017bd1b6cb07807e70769d2170cf9550c1cfe5aa3a762b5dbb68ec408d13f7d1c33ff648d71589ffa67fde44d0b9404b530b3010cfa8f7d62abd8888f6644e8fcbfc1f8faa1f058125aee0b221a9de635611c29035863d97a0e046cdcaed5289a4165d914e71ac41b2d25ea05247e2757a23e4d676db9202e0be0a46a0302020e05671d78ca87709f801a389acf1934e725b484cac74c26c19a2677bf3cf21a0771d9bfcf1e0e221c95eeebeb563b9c9491b47de0c0422884901c91581ca062ee721d5cc646074d0a464a040e2e5a7deb34b859d69f18f7062fd45491ae4f7b01ac7381c7f1d27cb2240360076a37c7bf870e4d7b51f2fe364eefd7bb47553ae21f6c474b648722531ba1658b876b08dc5a075dfc9a370e0e53c6a6ceb771c0ca32c8d4b3b9e44b6a648227fa98e18033cf3f2f9569722503b0b568dd0e8968f7641b784bb243284f58fd6dc6e8d97b6ce446bb084b3430fd883b4651073fe4d5f4710e912eb15709104283d193f4291018d8f0baf97e27eb37dc668b1f6a34ce7f3007fe5ac06f250e92eaa93c63514c167dea47f594e191d81a0200ac73af86bf99691db62d7e7b07ef85c24d040edc833263c48ba683b47e2b3c03fba8df1f9437df96107a2791634d49ae691407d2e8ae9f02100cb1f0ae559da54d656d22f4d72963d9de90139bfc91009e2462deff985e6707641545f407103219148b5c6b3525c723e14ad2a8e8e1c10af4adaa4f7a9567f25632b86c1707b24ef5b00b1033b78449ebb2a06b58acfaa4bd6a0c23925ea584c012aeb73c091c63a74c5e033e47f69610386d9efe124820e632acb9b7d4087ca3c7459f5a241ce157679f0dfc99c676032ef6677210727d35216cfa30f90b2b6cf8367b5d95c941126686f0c3920ab5747ad1fc32071c33bc83081082fcf93a680626f7abde2aebd94ab60bfa28ad6e8d6b639ec2c061adaba91807ce696327051088c9b251f019d77a29876f9171c190c9ee7c96220f48e0ae8dc56a717a3c71070e1ee1c603108e79ee5d31f28f4375a11bac76420d7e0d048aa5f2cb54060f50270a7ba41b07bc6eb4100710bb672d6a2a80adeece303cbf6893fd907875d5019a683ebc36b064f398837a03e9fc31b810c8ac9fd37ffda66ff08beabfa8cf3bf753e30f8759d50b2e5171cee0d56d2b07bbda4c320710cc4a61fd22b70398ea4ae6c47ea58432a1f837129f5ddc609afa6fe959b564039f57219a10f21134a151237809a298b8267862d0a19fe054cc9163b25a7fa8f3c95eca510010ff077b1f1b2f149160372a271b4879dc37c6495dbea4c7f806b124695f4b7f076ff315480110ff39dc3b684fac83673bdf3188e85a8ee0dc0ada27e32a38dd590b9a0c3c6d07488610910812112a9bf2a33b6d633a6f35ddc666d1964b2950a5b96a41625881ac6ae6b71907829a33fd141221b12a8529ba336e4e07130dda0195d15fd026dc41f77462da18709972785d03c8eb66fa123c86396638fcc691c4b140f9397e23286a080f0ade8d25293ef84b8fb9070a07aac68f3406123eddcbc48a184cffc67d91298c310d00f8b349fa4f1e948253f9c542275d54076c21737604124c4c1a24d3a118a6c2e32e73b58435b56cf3f646b71efde920f2019cb63a72077740f58702126d86e13b6da2f2afb34bab04eb5d8c212d72470f66071dc4f47a811deb85620333e00c41127e1371004aa81fe2b6b85c11794ea41d34d74ac9bd4dd09ba5914657a4223c07eff5835317127eff1361aa52290ea6699b104d2bbb0f6d4b2b0fcab14cf4eddbd6cbb2f3150740c0905b02129196e4333d29041fd28d593878505526a6fa14ab1068c5ac7ced529f82e94807dffdaf8a0c1293449002add658630328f3a224b7f6ecf04cc78f2c96db22fb7d431301391d07170536a30212a914db5dcd12406ff64c0aa8c68c45e089d30ef2e6e097e821789f73e11d3707a1f37ff71412cc373d9744d2d85f46c2d1615c726f4de9f713eb700f2ff9bf9b304288375c07f1c9fde60e12cdf43dd64a078d48ef0a7b08b047ed9fe221bd2fe55c05dc69dfdbf1b7237007892a6e7d0312d4c6e67728eaff9ae0de25cfd0ed9a064587ad4ff4642f71eb65e14076e96a07551c5dea0212dcdf21f9d5bf1cd396cce0239d453350d7a5d6288eadc2ba17338d2e824c1d07d00488963a12e06f61b61aac9c79ecb6824fd8c92cb870d3bf16de66947b38678f5ef12971036140674b12ee805e70dbb1804e934177f320355000144fe5b9069ec6d368cfccce7c4b4707fd2f957d09140d12848b5cb901d6202506d11f36dfa833e990ccab6d2fdd8eb30f69f8532607abea9558011411b07941be56c694ce378068860498adcefad0b2f3876b8dae7bfd3c50880f07f6bc4e97041417130da260d2362be4d48d6dec12944d2590b52b5182d1eb7c9f8ef3c7e86b070aa0505f021427007bda77d92df3c1a24fe46d819558be08ced8ac00835e133ade990d9d4507afb6f117071428c7b205b571db09a0c61bbffbe331402a314296ad95dd19eba62b634452580749d5d4da031453c830048b5ad91ff02c5177e2a2735595dcdcd6221ed038eea41e73407f7f0758dc888702146806616717d92d642c72447a452484608a460f2307afccb2bab6cb79a33e1e0747d119990c147398ed946dbc58c681822922e035821c3ef8907219d73c3147fa8f9acf9a56033aea9273147ad36c3b06c3de9d1280e915afdb2b41befd21ee5267443294d8c5c5d94706070c9d0c58081498b9a6411974af8333bc751eda35a1f895aaa315e31f6bf331ea62ae6c7d5f07c01efed3041499e8a58e7b5b08ca821c5b4c3bb6186cb7fab1cd838d74d34bdf0ea762aa3c076a37fe980b14b475c181a47d86bce9952311000090d748aa433e4aefdb451e03c0f185856f07dd6f111c2314c9fa96338f3519159d8c0e3c4fc18bf4f51761e6c00f0fd4c32470e09f347b07ef6e57cb0114e2c63e654e161a225ae5278262e1d11d128231c8c11973d3949f5843ac5b2e0722782f72011607db335ba5fe016d3103a50314e69c77be5578b6e6bbeecfb1f29cb028a8434a6058e61615ff6c9c5504443a873a296feed9a95160c4ca34b1edcdd3a226b71764686903a099e2781616dd4bc5b4aaf554f69575375ff9ad052eebb59795e6d7b8786cf42513c03903f1257f40161e56d91352f8dda50aac3f8eda36fb5e5775a876d7c5ebaecb5274cbab3f0907bec678b62716300ac0c0e78caa382eeace3b64c7064c74062df3ba17c2af97166c2e1f4f6a00163db1f14fda5f839fa4490ff91f4d8f12e19da0dde579d5f667a2f9f1abbb540739b2d6db07163ec9897968b216e46945d4dc486c17a7098eb7b60d94e5a0bd9dbcce26a02707ae1f409025166ae4809fa778c6d0728281296020aaf15699002708c7c90cff2a1a1ce400480784f4bd7002166bcaee69fbe8a51aa1ebf3ccbe69b1abd60fff151e113b431d7162a6ddc77a079d00ed887f167b4a1c42fb190ac5db60513da626f05b5708dc05b8bfbec27c2c4f73c2c33a07fa8ff5b80116836b9122d9607cf15bf924673e8a39d9d2fd41e0fab6349b6396078620963107d0ec9290051691a1b68e0fb9d30a0576809efe633c9630bbad908e91c5ed2551811527071b0355c9fba1169c6a54ff9b628eba77169d3c1ee7e3407a1794cb2a14fcb1255e87bd505e410778fb530b0416a84ed4d075fd13143b7d7e8cd39e28bcb61d2d2e231c2be63dab5513dbfe50c2b95d3316a95f439c7e5235add808f012bc1132bd0b6cd9801f8e06fbece757442f891c07b037689a0216bc0251f1f3b94cbeb37bce8b0efb27e12879cd701e87681607170db886480b03f34df24716df5001b4b536a2c65f384fa1a900a30a19d81af0d4e4ec7469d106611911020016f435e2359250a664e6a61c7a73595f028f4fa4f878f5e8cf1b59fefc8bda1c032260dc401800ae68723181b847d15be7916b816232ca40fc6db7fa939f8b5101ba22c07d0748900248131833624b1f49f04a9abe033d0437038dd07c0984daa92e8aa19027ba139d7a37c24031801884373454fb063432cd6c9e3feb217e3759a9a55e2b066d3d1ed669e118f100077447d3c30d188557ce632d4febe51d311b7bb098892ea05033948b17aed77b2fde00141a1507180767dd1d1885708feaeee5f3de8d01e7b3048df26dfe4d0a0ff16947214810f5a65bb11603f4dddf8318910840c0c2bcefdaa3bd18278c6b960cf3fdf20f02317cd1eaa81dff71306b07dd19dfb3021893b6086caac07627b106f9ae30f700cfe80c18a4e6b2f0ff6e41388fa1365b07178be8c70418a7a42072c84ea7cbe8c14f3448f6d7683b61ea2095aee15fd35b5d957b001e07f76ec5ba2b18b39003d84666152f1db2d95edea091946558372bcd3cb1c6c4140bb4a34066070b59f1ee0418b701e992f1656e3b15b452a9cdad7019c6a96affbd29eccd830b09fe052671075c3ccc1a0518ea6fa494c36948a543a923a8e91707f6341fc614dec056a7f334fd69f4765b03249061a518fbb62f9ac2f7e1c87ceae0c959d737dc7845a363ca754861af11b32f49c569039f63cb401a16637e288ddfd1eb4f9edeee5262846d48ddd5374e6f7b5c795ed00627173107e28f97ec081a1f54f157df6a6a970c01702e8ed57b6160e704bb3d3b5f6d86b4ba36e5640e07abbddae7011a29e5024fd40bed97ab3dd18289d7f87064027b27abd099a3f77a5b81f8ba2207638d9f27041a2b4dc8fe3a736cc55415eed8ca9fee765c958bd6ad3cc33d8fe24f002eef24071130a538011a41d83b901635e5fd8faa343aa87ae637f2bb4f00c8bc5355676c862ba8655603a13f96841a424c1e042ec406062c4c1ba16c3c918e8dd9361e60cef26492d7a8fce3644d073126794f011a56c6c929c68707d8123040fa3f4ff6b7030b63259184fec00974047af74e500700d042eb061a6040463b7d617296f281671c7d2b94b09850b66f72599282e16ec66f88c66b03bc560d401a6458ee22388b34b6ac2ef8c3bb610881add7b50070c24155909bbfc24510070317ac4e861a6c78f69e31e62074373b0a20be64dc406dbdb6f9a5fe9bacf05fc7de4e6b0807194ba46b1c1a711f16a1f74e4a2a52cadb3ad6fee351477d28938cacd9b943d5e94b6e1e500317a58fcc1a7b48f0a87f79f9e8d5934aea3271b5db5f85e9c0d36f293e94ce7e62183f0207861bea73021a7c5ec6bdf962876367261ce690bce167d703bcb4848c0b9f090dfa48a2db64079f14c380051aa0fbe2af73f30ecbc26b89802f505eb26f8ee4d7a2fe1d2dabefa65f5efc50071bee0256041aa2cd29cd664905977ab8449a702a462819dc61f2c3ff923d63083ee67b9977072018edbd0b1abe6bc3dd8804bd35ee9b552eb76df1914706b7e946d0574b50b8719551b20f074756a4f70d1ad1f0048f8dd6a0a0c71a4f1bf216488e456ea4d84aa80333bafbc87c3f1f0503675356821ad53cac1339a4c1af83974876d1c5a2db7de7a75f9411d178ba734bc03a446d03951531411afec9ee195b9567cc59068477e4fc247f25329129f3b2133ad63f5e2bde9d6f0750fd2c2d0b1aff2401d9de17e79aeb61015f89d6a602658e48ce70be3654eb17eee7b31e70079dad14c1021c03a4de3f099fe9e1f476589fd04bd264d9c54fd001a2cd65c4f20884f76e52001c0a08217de4ff4bc3ea901d2d066055bb8f260867279500c7d2fac804316b1007fd5e66f9021c151c831e197196554976fba1572e12b5f007653ec91046ff2ada70e540635907286676fd461c357a2fd537dc0ef74a236a3e65502bae6ed9013378ac058f08f6aca7dc7e5707a831a725191c3e5174cce387163e152e4326ff6d320c71a67cedbaaeb552f455d9b90612170750ed6141011c3f1019c8f84359907566b30bbde63d5f1913ada4907b25b302ffd7b4e2b11bcad7ba731c44dbe4856a64a73191141f7cb9ad2a88819845067856b3cbb4f99d606d5c4c0715ae4ea1371c64a264870439e5c5df1d13026b07d969bfe9141ba38d5355cc5327f2794320032045e6f61c7bf156b1bd807884042413a14ee6195d9d85f72717ee86343ab37377f48e01001c8854abdb4c403aa4d940a294bf911cef57c5db2a757db9ae011788e8b93b03078614ed56011c8c0109b4b616e43f8a5146f20f0d2d59b827eaae52a6ca86f093d5953dea090771ca0993171c8eeef22e7cd259dae0b459a3931bbe88412adfe73c1994d225d0f65f4d351a077d95e250011ca840d0f7534835e55554e4c6a8f14dce9cb6b00cb2f697b6abcbac66decc3707cd067eb7011cc47d42993336ff2919d8699275140f0d9d5c978fd59fc142204703db3c6259072769f25d111ccfe35ab623e7eaec1590656d36a74bc8582dc3f1f769a1838d075ff9e1cd6a03ddeb63931cdaccea0b9cadc41867ce80f383ec2bdfdb1d3970aaf78f8e1878cef48b647072e5a5d61cf62efb0dd7fe26ef0c1e1892d9d6c4dd1c9b83463c2085352746f43e84bb3d9a973e381e12ab383ce7c9f3dc27c801fdd5c7311f043a561a1c55a07847f32e55510c1a072f3cc8141f1e17ebf7f2472228a7eca621a69e322f17d54cd89ee6963489d4095111f4cc20078dd11f51391e196061943284d54e66d1a24cd4cc42e43452f6d54058e84a7addb595a38c6a07472e3d11051e3c194a6d80a8b13cc3fc2d060c1c5c1d20a6e2a78fbbadfb7d6e007e5bc35f07cee7f12b031e68ed77c133a4aafee9a917ca082c17cedd582ce8a444c95154c940b1b19923073b09fc31081e6ff7cc6d492e27b3fc6f961e252b3ce81e999ac4efe6eff6c35232f002ac220717b77c6a041e73468220997efbfac0ff49726875e172ea9faa27f90b3b3817bcb52322202f03fdfc59e71e89ceaffcaace7e82b3a575a89aa64300c215431ea4a5eca474ba709d9bce09072a0e2e05081e95af5650831d57afd4626878fe6c67d1109b3fca6b43ceb90e16b368ba3b7f070545aad7581eb45f861f3f9869f8a1fa8f872311dcbcb2c527022eb5bb8dd5044dd8eef038072d20763b011ee8ad090d3a2d2fc9c13f0849190ecd0e3fd5d537cd42d352b32ec268dd9e260721209fe9041ef5156b375ea94bef9d7281f57a9d3b4da62f5480ec28a09fff3fb53d52db6c72c4707c1efa586742d2b837d6abb5e92b8afd5a3b22bfcae1f3909b4064209f5ed3dc4600200aed07cc17d0de05fc2a01e1417efb281f95cbec42e67c5ee3f3e2d352d11e038bf3cb432027c72aa7e84541aae51fce4569c0982861194cb31e6e2495c902d20400fa6c0706c53a91022029d291359d610decb18494e71cb612700a3dc2c2252e1776d35c081c837f1c0757538b0a05203add7205d45c84c340af7ad4a412fd64b05545b6f1dbcc2e4d976fb9d1723a0782d55b760820552d7c9064229ac4e1ae577af4ea671e64c4e3aaa6cf6ccc1568b5b80e752e07b32b52910620638338ba6999d1a7a8a0c86dcf6639a31d0f0067d77c509a3f34cf3cd4055c07d907b0151520657b047e497bf0cb8c2ced79a09f27b3721c6dc1c8d5dac26658a8efebea1303d89b92df206c52fffa4d6894810737a76a6440225a9d55a022a8182250128c04b6a6c27207416346370f20842a4bd079e8a36070720258512e131051be58f7f61486ae4bfc65579c5c0b079d36e1be0320b7f375007548cf79eb9c4188ad660f704ff660d82a1700e946d6a1b8690347076ebc0c01ea20c698666987e54f601074f46137350c6ac2edc6e101385ff1635fc2e6fc080807121ee8390120d1cad8c7ac6e0ee2da8e246b5f75561eaffd6449c7fd7e01451b733e9bf25803d2d07e9920e233eb37703121cea16919cbddc4cf8157b3533a665037e5ff611ba984e13e077bd56f5d342237705f5e29748fa561d6ae2935a9043632d93d5c43a0624bb0bff55608b21507a8e2b2df01224134c46f6deb5cc59a162e3a73d88e3033862b6fa9b4ac6c3c17f2b163c94107cf3737e4032299bb9ac1d127994f5a37d2fb8fb8c282e3fda47d9d238f5cbe4ac3d61bc01b07cede440721229c4d9112e01f1c4ad59ab1ab9e371b3b6b78f00c00547bf2c3ae70f0ee425a0333058187229d8d71bc52fdec92cb0be597af074c7001a7ee5f0b924cb7332bdb40f9ed4d034b16fb8a22ad704a517e98004795df99a5a577f177a547e25173a7e0bba05431ce8fc90d079e4cc4cc2222d1952ad8d67e9f2b50014b0fd4c1625a976b08543051221c44302096589c3d07c282ed940122fe68b4668c969ac12e541b19586cd1e292fd0adb81e1a7642b7ec6535c083107b7cf8707012404bf14b02b9333b0daaf45654c02e7b51976f9f448c49ec6a387b89e29380e07fadcda3d01240884b3e51a31003fb86e34c897573ba2b257fac015d31ce9e44c525ab8556300240c50af318b3e6459fb2fa2c4c5d1a377dad81857ebe19ac1814ba8283e1e69078cfb8b43102432aed5f845f72afeb11c6989df0abb599af37cb9d2555ed2d814567b802a2507ae5a149b022438e5bd8d44fe43d49249b4cb9a6c24d2bae4e3a3f27e2ea282d41e10fa142e07b3b610a0182452d141f82e79788800c210ffbbb6cf4a4f34c78eab0bede2a7c0083d5dac3507719bef161f24675269a0be4aef466eaaa92980132b8b9a38de02ac608bac08e4ebe46d001d03d1f999422484c902d9b9e058a2d396406da35470e83e2c863e37430c96ce2ab53a6ae80507da0cd59402248e6d2ac611d29133ba03910b32ed718029030fcfc88470b8d06666bc7fe55403de8297f8248ed707f1281989c416acb7ccdd3a7eeef6d62627a1d3604efc534973684446039fde228324cfedb1e3f42d8e7701b4b26a236f24e455689f6b581f533e4ccd20a199463e037d839b4b26021b43ba0a643141fa2dda7fcf0d9fd690a4d6eafe5115ad26c164d8c0af26031a4fc65d26096606161181e699e60105c111737f32dad253d0db2058eb129beb75a32623079f9e261e04262772a7aa84cadf1f5e254cba2ed07ea0ced2e5c0b963fe79e1cf42c113211f074e4db9cd0126286479a279f1793636758ceccbdaf7d61a7418656fa69fde1dd4263c7db47907c6076aa601262d673a04e428a209e84ef8acef90ae1504b1a7e308100d51448f51b56d784907d72271afc426327ed3957d69009b0c8dfd390049cb8f56879bd1c7c798eedca27204de4e1f079a133dcf052654f7b0a6dd28c2063b835f55f1f64fc804270ee0054894756d8f3e7e0ffa08073d8446f002266499712dd3996955ae8f596990c15dbff341e5a9e2560dc6919c2c6b94614f03972e4a5f26796fb1087cda5e75e2dfaa9e9646cf8d4051aebd2f59406a8c014f8429547c0777eae67796267cf8cfdc93a514e815e597eedf6600c83843c536e032fdc98bfa3bf681804b071fcf5a9c11267d1c2cd1c42feec4b59dc7287f05c935ecca5566cbedb22880e6054dba727d07ce5cd831022688d90d69becdb6827b76f76c8ed940399dfc3b4eab0e83162788887856713003a36750ac268e5924b54a10fdf0975c9213f80e0fc0a7c08489c4a0a18772fb0a0c84753407e90b15ee0526c0c3799fa35997d83f64084ffc5101ac780720a5f8074454a0cb4b049350510026ce0d22dba176704d7a4a2a8224fbe09d04e288d324ed56f1a9863a7a4bf55e07b242e61b6926e0ac73821e4db150bf77eb93e42f550bc62808e3af328b74e18d59945329210783d5e5a30e26f653801fed2fd6c9c4404c3f026640d7d3d9477bb3719ba5875dd6424da24007ed44115c0426fe90bc8fe25b59fad5545ac8d50f61b6ed30c3a39ff0779681fee403cd2e0707f223f8ce0a2801a656f86a7938eee32f7614629208951c8c297f2e75b2a98dcfcf48aeca3300280f7ce8332f936975af4addd316ed758ef44b6e79c0271280a2b5115e77ff560797b418b802281fe2ce7869399418ff99e7ab2131023fbe989c611a8ef3cda59b54105aeb7a0735c1ff8c022844d17936cda439501a7d9e4094328466769005f573eae66315766422c1ee0007c2fbfde90f284aeed6fa135e414697415a2568a1ba88b29f6b3d3e5b0b80fad628fa30c9250ef53ffe284e2aa0f13ce02a469886c7c40df05176afc3b23567ff8348256d463674417b076831fec30328503a296fbfd4248e23e34389a00f8207d99ac35a3e1228eb52f808d561196207c43c06e1022858289d5ad275722072de8c2b146e50f7ec3f1b7e1901e49140613ff363da5403cfbbafcb286d74ce23995637460882dad004b6208f82afe6c79f041dcc8b21761a728e1f070137bd422a288fad420f9c841fa6514b9e910ee0b12efc7b55eb0b7c18b2898082a396163fe69c323228a93f6a785acc74b113cd5aff48b5d7d963fb6f36726a708256bc04dabdf21207d8e584a62e28aaeaf4fc3b07bacc0e70af2d0bdfcff1c40f35a5326ee739ef274c35cb2a3207e9f32bac0228b8ca6c9e4d9fffd5b6493313aa0eacff374f2a8b79ad6db401f4f4c27bf11d07797776630228c9a35a8f5e1f2a26f48c9cd935d66fe6d56cb7c1b23e4ce54eed77747b1d2007609e18740428d50c15a11c4fd0d5026c364e3ded907b29967e85386ffb3a4cfea8063fb007074e08b6e62228d8bae8a16b4fb118daf7135cccbd58f9289f6c07617133cc3f43408041983f073bc05fd2b128eb03f06fdd72288068330429aaae06e72a2edb8d341d3d23dc3bed667c2d200321bea2e128f4d5ef88d4b4bdbab0d4d49f8adbc48c6b551fcf8bb1d5142f60ef2376ec6907e8b51907162a09fc49bc9d077b3da74d3be28ed82268b6916c3825529446209d63ab8df13807190111f4172a237094be7c87135321d195fd8acb4f4c309d0bc59b0c9333509d13c9eae43d07b2b9f56e232a311b19725c934bdd8f87c527e3b5bf66318ee42a22482a1587fd680c286a07073395c6c5352a3d1ef148023555d7a7ae186c7262e2549f4af2b15c3eb9951181afe6b00a1a0747c7d8d30f2a401ab4a587866f1855b0a406cafd73a311cff3ae5a41690c5f3dc014183662034cd14a782a6a62c5093798a38ba94a169f947329f2110312b709d5ec189043397207ce58071f96db82072a6f6c4982c19ad766b3bb71c95d91036dd498e882a50991f866d093b2f1311907dd0dadb9012a71f3e395799fc74cb1caa9a229176745dc596264636f1c48ce3f4c2a04381507ff3bc098112a7d9e5f4220fe8cc94e4913a6158a0a154ae4280545a1b9a2b0cb0e294ade2f034b5f54de2a9f19eddce5aa73fdaab9b55de17c4a00e3493aa2dfd523f2a897a1c10c061307f1314f3a052ab1bbb22ec8aa2d8c247942c60d941c997a8d1ef9a2684e5b4f5b56aec5604907aa05546a032abbfb29c8982b7e06fc589f44cfcc7b6ee3c73ae07cb11490b6b3709ee44d30038e13d2812ac978b734fee157018a4a685dc0986c051b5d8985af0f346b7d0513259036250797ca034d322ad1b21e3f82e6d2edaa55f01bf92c61561f23daa933016448d47756c2d14d2a0756f658db012ada04b976c213d0aae22cc1e01085e2a4b37908f051517da86044e6d993801e077612e5a3032adf74472c0db0830e877d33aeea8cd65939bf50a163577a25f74c9f91084b0f071a01a106052ae6f5314f9db72e804b6009dd56925aa30d653c814154698080ce1478d28968074e42b5e9032af96be008f70f24409c12b4ec6661d0a103640666fe17186bf83dad5bef0063073f2baf983c2c0296c2811be3ccce6c724a2263c14909e27b3332d5d83fca54b1901eb3c025075ad1d102192c0a04f3c00fc2a69b3c491d7086e33a743169efc81b5ca502725dbc0b88bd1a002c2403d1b8419f60f2a2dce45d9628b1920489703c2d413320837b33b711524607995b4438102c372e658edc762c64d8250e34c54e1522bef79761a6b8e3f4b2e7c7a391cd0803300613432c418babc292e41807d1c5d8bc5fc45657f7965e17a588e451012ecf91458a29002c45c44b80465c497b74b578425559611f5dc0559898d809112977b58d62871e07667b5679132c655369eb937c4eb26939822585b38bf06a3d09ea39b83cb45b253dad9bbe0a078152342f022c95cf452cd50e5a766d6022e4397f130d861493ac3757a4ae1081ad0128442d0392aa46842ca62ce110fbdcef025148c378536a2a08f6b9058ab32763b4a38933cbc05512076339a7fe022cb93e4e0917d1fc79625cfc8b2badf98f8918e3585d26b1af2b335fcae77e0207ca4f5169012cf0bc694f58f0e6a6f3fb599d256951c3bb1a32e7a5cf3ca4e030907614050a1aa5b51d2cf1d3744fdd599a769ddb19a4e2d0533769b6842ca9cb602026d2ad24be436907a8af1f4f192cf227cf27bbf0461b676ed1d2e986f209d77f292f39c325b42fc0691d5ebd1707da4651c12c2cfce5d5c535bf685aa4e0a600e6db0e45d17fba929a303a2848591fad9a900607a902a4a40f2cfea25f610ed14d27da5dd554d663c12eea138561e857054d7741b5bcd6ea4a07da86d0ab162cff25745e4c2e16daffd92679d2e2d738c0395b46921415d27d25a2e83cda6d0797e5b1bf0b2e169261ca8bcb1fb53a523eda75c0f0b397c14d9f7caca6787faaf5b85b4e48075d84f728042e27a9f139725567c29d1613c646d30e4b1328ca09d069c26b3c636cb777876f07b0925c1e2d2e43c5a4bd39251dc9607c8e50299c13ea9fcdcc244e2ae26992e6198bd9361f2ec9d7172e467e70903020a6f4e17168751248c47a0efec83802853974d3f56b99f79a7c03b4382b7d2e4c2c1ebd1ebaa97be411af53166cd1a4c662b225da2ac33516be983e9ea82e07e3475022012e747f4b6891ae4d6e4ca5d433aee44576e70ff0cfd295dd23761f71f6bc2c0507fa0a4d263a2e788336d990f08bb6ff88ee9f1f24948cb68bc356f0fb25e57b2683dd7f2a0e073ef7e6c6022e84757b4a4f883bcbab91f5e15ac1e1511af1b352fabd261a1cd14ba146aa1107f413d2166e2e8bbbb71542c34aba72046264a55c6031e8f2e2123d3f9c7ef88d6b28f0d55f002e8e61d9b96c0d55f818d42b93156b3934fc7020485017fe574e82c94022930e07ae8cfa5e032eae48a297983d62e2df410683b20d6d754d26278d748eca5e383409906e2976072b967c1f032eb7577bf81565768bba3e4a04408bbc2af82753fe5d61513b77b4564e692d120318c5e2662ebdf432fd27116db8f88eb9a89cdef0f53e5f0a30f330fc46d1262b2242471603baecd2702ec9448559dd76c8a4e0b49258e38f4d91d19975ee3f891511f1f87939fa7a34073c4ab2830b2ed3552143f47a4d78cb100a7a9b618985680e7db282425d849b5ebf2a90181007d1a1853d0f2ed66653d2e35132c724c13dcb27abfbb0815870fccb14835edd9a82f4c25d04002eebd6db49c88103f185e7ac796e78f6907e42863284f3170ac91d5fe74ab971076b2cd8aa032eeeecc2c2b69fd081a9139e6c9b741599e22c17ec7960c464ee605c9f21e1442e3ee5302ef0db0e1e7dc55d18402f84fba429db78f41e6cf90febee65f0f19301a1d26c0324e53f793006d980de6fb63f7cd011222b3bd8bc6f9742c13b62e432176ad16294eef3530368744741302e46ce0a75ddc8d6083d8428f4e7a3cb39263a44d1cd5cf6eed09cecf80f400316749742302ed1bc988112b4817b13a3ca729f940a1194cc8a8636a8a30978c51f3ff06507858702e403303d29d13f8a7e6d7462e93121c1914ea27d4fb8a837f0be463b1787283f3d7c072b5b2be974304365e7c1d2afaab0913c76911e01018e8b8a0b3156b82055d0037edcea965f07f0722962453043b0d51f2a1272ee1f3086de6a19d699f89e9cc952872928ff3dad60f9b90e077acd4aba04304d3d55134e4c23a0d890bb13f61cbc49b6d97e18582bdb6b73b9f9601fa4170702066ecd083055ba1698df7baeb960a108b3a11e90d4c1980db9ce507d5f474eaeae9c19134aaf76f83081ed10144874eadbe3efaff8ce147cedc530055ef7a7b6fa9d48cddb3f2c76074470126c03308c856c19a64d2d922b7ca6f446fc40241ca153f51896b2b1ffe83b182d6202078f5234680d309860ab1f3eb06d942f9fa501e8450b182c434d53070ae7e463176c9ea99566075f98b6530130a663ce96acffa8697fe98cf71208e35a460411386e857a4586ce47807a3d49037c700bb830aa6022d1a4d4f581ab6b5272bb1f90b1022f261164a17098cf6cd10eec2d1a07f7c85a400130af8e62e4d320d2e96b999a165100f65f11d3a31fad576b33cb40a83d66436507314df5ca0630b7a84dfc5d9f8f8b47718214e4376b9dd292aeeaa6af7a37dec5661caa506e07a90b002c0230cfdea131e2d0ce9487406e3be282de241b449272202b637cd4e9314b1ce23c0ba1555959c10330d738ac4ba86bedb491b4602e5760b41a6f858c1a8cc27aa1f4bdb336a7ce280740579c810230e346b6fd7d7020f39aee9d5bc569838ccde220d55af825109cf6248b96d40c078adcf3620b30edb0d02c1e8453d6b478227a5450c4811d3f1a3ab77c856a8b2ab7c4d182200030fa62814958b72ccd542d13bd72a37477c2ddfcb5b6755eb07134daa056ec7603d480c791320b5a3a910e9d2e59f1d03cc7c4f366ee8b370ba74d6e3ec5ec75c87dbabf7407f5fc7dad1a320ef2a284d75e2524fe036659462a070991ba5ce0b0aa9d89b9f902ff8a422c07a6bcee63033213109ecd647962473af7950d39c83fd069fff27501cedf767745e8cc8f0b5b07c76a3f250732209c7330b80e4de1dc286046854565d0d7a7a1b32d76a09959bdd929be371307ab7c7f200c322bc04a4b457e12efda9e875bd9912607e95bc34925beccf915ff594b29a25e0780c53c7f0232325fa4a64e0780c7e1140e032a21dc49e3b610320fe6d4af8ce44e8a1868374adf8d653233d13b0b6b04cbfefb07474700a7376e0d7f5479abbb42bbcde7263a83f46603a3695dcb323fd116f4f6f485a54f0db09672dc44e265785cea68ea6e41560da84f08287c07d7074c4c013255294d4f02e63197ad185088fdf5f72ad6417851c22e478070a83b64f7cf2a0793dae965253256c5df741cac7109cfa1e52cdeb942adac7d2b614ecad4b7fd77b8e1fb0c200b9648c4b96301325e2d9579d87e7ca60aa486aa6f8f5ee2aa239c99423eecf88902f3ce4a3c5607de41c273063261f275f9b1d24b9dfb7f65f2ee960edf99a93dc0bdaa3cc801faaefcbeab04078bdb134b013261f84f1b6b1a00b2867ca4cbcc1f54e4d69cfe5a76314dd159d20804e6116307a11e14be1a328ab48c9fecf5666d622634daed94146aeac00a7464e22b6e9be8eec8df9b08070cabbea702328b3bb6397a67ede549c107a48cb18974cee1ed91b3ea2e1c6e4b838317d02207e9176de6123291124d9154cc262c728ef96a62e05ea5e4ff01121b8137e4f1ae7c2bbfe45b075c553088043292e28912b3c0be424cb470ffb737e58eaa57dad101911399f505af7f180a5707ee4b9afd703297e25eb9bfbe0e1218265180c65badea00117b9d01d6e5f9a3225ab4cbc82807cacfb9601032a9aad3bf2a864498c07d0a4905d9ceac170ef6173a05ee59a54c35f1580b7d07b3c1cb8b0932b8bfcd61305882ec19e4a3c6d2fe4d9f3841ded10861d0fd9f6fe05fefe14b07b4d2c5369132c225016bf7f51d90f7731b9aca4f4b786ac279304a089ee723a4f2309a9a59072bbcee541a32c759f4a383554467c02b36c2fcc2850bab05086c8f34144b0636bd43790011072ef7f1100132cb54fa1ec546ffcded7f594b2414bf4d77bc955788bee81184856aa003bd1307a2a214030432dc226d05b032e59686487caf7b93daae668ae31259d4ad6e3e262243b0c16507f40779610432e8a806a50bf185973a6af843989b368e075fc489ce6894725e5e7a35484d4d07af8dadf40932f5630b3dad1c8e9a59ca21f534e41f995cbb9215451918328a2ef694b7e54c073db3f3550132fc9c14b99578994aed5b25953bb6e7a0c2d0c41f3a5ec259a67ef6f0ea525907ad6b932e0f3403189c14a2bbbb3e28cab84bbcc8810ad71dbb9002044276ff91a5b7f1ae7907d685aa8c013403d66512ea200e396c704e3326356e4a61e4d0981afa01a131f33abfac7d56075f5a3f8c1d34198e965d3b17a81cf3f82860a33747ca01f562cea2fa4b5b7293a4c8104f0607db8d56100634269a10a49a39c58c34f514fba5c71b0911d47275857720ad4b1773a06e4250078e29444a04342eabe9a88dee24e115ed415aafaa6f72e2283753d52c27bbf977e4ae8c9159070c311be713346f12bf66d8fda9fe40a21f1fdbc2706537ec2c4ad9e661839c91e1185a9b7eaeeb9f4034767d750508c890b5e33941c6fb16aa45380b0b74ee94a0b8c83791bc77863407b68ec778023481f2adb7e85610b3d40bda7fc8eba5e0e981663516b43f2e5f96e8a4a59d11e21c8cca3495d8c552e3f03fdf4fadd2cd2c2b3695002ad476e9ec204675b45332f44d30075efed0b0413498e173d18555eeb2a3d4b8b3fb34cbc577991a7229ef4d2ddb8c780f4db64807b09b680332349dc82c83742e541e4507e9516791955e2090ed545f707bca1bbf13e61f114707e7cfa12901349e0a420769c830aa8b1366b59360e4a88a4c2a201a1c73be7f62187874651c074d47dee91534a1353d80cf8a689f5348cdedf4190db6c972d4ab8fea88d21bf0f7f943541307e6e1737aac34a1936423b61a30d0b194da6bd7265422feaa9ce72a264bcc425eead65ddd270743f2adb20f34adb13ec378e34340467d451f217436a0eacdf41e686c6cb12132ce57e7b5710034aebc5ce3ffd84e0446beb2d05ba343fa0c6d04d8fb52c294f97512aaeb447507ba768a380334dccaed9a3460e41acd943635489e8d1ae0e4f09765ef3734811b276ea0d42907e8231acc0534e36686dc5c67e644a2afd0cb333201bb0b48439d78cef72d4151c75025af520741d3aba60f34fef43dc838cfaff780633c75dc8925ce11ced7c5517b5debb13caef6c27c340752c35dd619361992046d20d1bea20f12e28291bd8cbfd5ebc10096dde3c4d52de39972cc1a072200b9b60536228d444633ad3a2259b8b9a3c40a099a0c90588558473e78157309780c68270710f0b8990b3624493579c9d463bebb930d1774c4470ed7005e8bceae6b6c0217430a1cd912072629366b093628b61e6ddeae9a678bbe29f1d3905e696faf849eabf29c0185ec668fd0bc740791c6e29b06363b8e79b9f56a20f6c01e0e7ec30e3210744547231f899582bf8f986a75a9580725eb9333ce3661b21f7bf6404bb33be88820afa74cee14a77240cc502acd352c3c23caa550076e40cc92013674dce5ad8d8c05f88ba8aa362c5ce364c9fec7bacc9391bb8f38f26dfacf4107ce17c6cb57369cfe6da2d47d419c0fc2e467c1b9c7819492bd7a7bd95feb5062cf7838f97000369ded2d8e9eb1c55a9e497d899e48701a2818c15628375c8bbe40ef6c0b327307ebcb112c0136a5de878939eddc343fc7351f288da40f0d745e0fb519b9466d29183a0184222a2ad2fb36c5c8ad8589c2cad856dcdf766995a41d9e8b4e1272899362ed7ae1098c9a7607be48b5cd0836c7002ce5e2a6b26623a7070c3f0c99868ab07a519a71f8abcc0e317025bf1852ca48ff36c75d5188e39080dd88b45e6c9eee3807081f64225febeb885d43acdb55162607914a79f90636cd927f4f07e15e4f7857d6507c8f1e16c0f9e9a2d9d56df802395e57b35e65071204c0990536ea4c7883b8f2ffd4095fe9aab31ccad62b4a876aa068dad396cec3db9840150b8174ab9fbe01380249ce95ccc9d9b42ce4fc931b4facf0d584ae3a9cc4deb5a1ca374c8ff9590780a29f8c023816b6c781337869a3b115373603a1e07545300fe52f6968ff594a2205689c4182b62bee381a544ed0b4e1655824889cdcf087d1537ae46c0d2ec1668dac4b35a75c5c480b2795d29e490138219c5f441e14eedc0a9037fa412f016bba7e77f05b1607dab521163648fd54079f54693d01382a3fa8e59059c5fc588851702c89d6bb0eb5c3f626432b39492c2b9596be010786a3113401383ec1c3195dfc9f4de46aea3281b4646be2cec81eadf7fa088292fb679b89480bf035761d7a013856b4f5dae77b9e5068296e8a2f499c41a85060105578e6c1eac862d1443450003858eabec7127d0ab88a6d70c719631b301f76f37644dd8656b7cc7ee4a73e77075673c8ca8c385e18e282b9872deb70ff7129a49f6c9db09eea7a6acfbf73c6981e2fa16d1a073e8f9e6418386580cb3974c6b7a9f6d7d835becd3db83d835a9e19f11680a5023bf836476307828b50830f386f00d11eb245bbd7c497702719834c5357ca995504b8b1c624f074f69f6c71077ea627860f3870e92ae94c9f4ba78109407455cd70e447026c7992370eef5ea0b3e5f3352d07a6418c440138919559b6135403094524371c36716a5c95efea8ade3569c72ab5757b684b42075fed95a40538a0e92df51968fb8894d6a500b14c6777df7ff508d03d2228a05479b2e1f0430360a89a8538a79839ebc7bbf98ef238992445ee92ade8b92de108d3f699135a482e839a24062470ae38c62532f635eb3ac76e3a320e8ac83aeae4928c06dba635337fd44cdbd983780038cb16841924ff4a927ecc4a82c4ab169d2901d53918803ae0f33bd259882b0f0385e1a06138d582ac8fe64fbaa14f94bf4036baddd0d5338169b3d33fc6bb278881b7e05903043da7b938d7a91a3d519095425cad06d03a89046ed4b46182859cd67ee3d9aa3cb1a4310353349f4a38ddf31d97a20903b8f29384ab01e556d7b1538cd0617a8955ccb7613f3bd028078c52c8253038e701593e7e658d3093635ec105a2bec9012dfce03f3ea3c1b97be3061c052d07a19c725f0d3a092b97aace434c27dd3dfc786ca3f51ce8064ef9d73c21528bcf0e61ab802a0790db62c3073a35cf95272d4bc03b7349d62711dfa40777dcf92f43eb8643c17bba86aeba0b0742ef0395023a3d379be67d5437e2ded49721e57f3c8170ab9493ea1ee781edc08dfb38e32d07aeb5caf9033a43bde3cb465c01e0d4332169eeecdb8a2a618aea3f11ace51f2bf620915e4b0735644a28193a51a8e8620584db6487275afa311c01d6c2733696a1bd7174a73e713a819f74074b7eb4ae053a660d07fa839b37d114575122c1d695dad4626fabb6750e9ae41b7f8b793c0b03a9f476783a7d8e5191a74a7b4491feb9068e7549c6204e37a951fdd6b8f524e5b2823a7107ea884193263a82f4f477963edb4d6ea1ed3811b30d576a1b55041b7c03fbb9b9bf36e5aa2e0b4d12b1ff6c013a8c04aaa10bf9b0642f9afa72dbcc707a3de09b0f4ae7a0adc58b73a82d16540727d30e9f103a925e5ea562070fa8e3177b02e307ee66d5217165e4efdc0aa046a0ee84c64c0771c5bdf5013a97832106d1b3fa8d5aa465d55feaf19bc1cfb09954b4353c6360e2918eaa74003acdb35afdd56a8189dc69bf950a277680e6eb2d16f5fae32f907475007980190751a8b975023aceb2482ae9beae66c55a81eda096b833f780fbd6f0f6c69887888ce11686480796268dc2603acff1ea5814bd5d668dcfdfdd6e7ddf38e97194bdfd19931518dc8468fb240f03115e40823ad9fbb1731a184ad3cc3c4b237344d5306c3fab9e8868719fe26773fbf6792b077564ea4a3a3add3d83cfef1c49d354db92418bd44a219a6e30cbaf31b867b02fda079843540769bf507d483af489c598aea5ac3726ac66c77dd080c5ab3e19c58b8971e095ae0fc5a640330773bc01b4093af9e154f013d12f93d0a36465ae11470fdf80b0c6912661ca700ecf762ccc474a79c28c3c0980ace7ad7b8479a0cc3fc2607513a079c4812ec775df7f406b6025974c6e070626d90c023c1359bdb294e0f84026221d2f27f577e97be4f8fe91bfc63203466ea0d6e044077242df5c013c233a269c0c92681e2d9c5644ca5781df8db8885ffc0fedc9cd586dfeea631807d448ce0f053c336edaaf8cdec2d48ee9a26e3925a2cb900de90bf8ada6bad6d22ce2e7b1526e5170f33c4edbf9e22f03154d9c8139945ecca1458d46a4ada359afd21bcb1f85531279423fc9ff3c59e2288dbd57542b5150f8bd18d8148f919f3fd14f036a087b0ec0db73900e075c509085343c5a6b07e978b6ab90c15ca72ae664f80ff5fbe9f7d88e928b885559f6d3a06f07939f844e073c5ffc55959cbd9444b26f9d011836d78e48d72ac85fdd5a4f838e98d866773f07dfe0c2de1c3c6ee73eb039ca631bb5d84cc7f99990a4b67ce0c9428cc94e80408793bce77507bc1d237a023c7336054cc2121fb754d1f030c7bf7e9462072fb489c1ebf723fb7026b6e2650722e32d3d0e3c773d53701053985dfa867720991a170c29078f856389d54b1bfc35744e1e4403b56b32e83c7f654655ff7ae44c8277e2e07d0a4646f4cf064cdaa541fd127c0472fdc414076237cdeefc3c8c7688e46bdbe23d07e2a42648782b0f609cca313c066675d0340f403f1f1e0711a028ae033c94f02aec23a3332134ac8f049c5af7295df96a35cb2b2dbb7d6b4937bcd758079f6a6c75da3c9882d859a5838fc006f9a6c660f02b1ff8f7b22b97b91d147d08d0f5309265003c9f7488d1a33a3477f189da9408413be7a2b148f265f3f65257ac37bd4b71370767d84095013ca1d9d8bea855714c69d9d45571bf8592cf638adc3436a520c276bd40944c1c0a0706223ca2e7a893ded1feae79e343ff30b46f7df48cdea0f30ec8a4333e89d340691a003cb60bfa1955939e51043225a2fc0da3e455d8ee5f455d5f899264f28ff980460712343417063cbb630651261337c3492db9b54e71d6dba4aad99ed2eab78f966d9e0c54f5680765f653cc033cbe47581bfb64e361a6a4bbcbf31ca4d4d6cbd5153836885eca808600c4056e07634f0d06073cc9b8201351b58d3496ec5bb53f4d8f6e6a716e9e71460274dc372cb5be8d0407b59bc86d3d3ccbd99ccfb0a2698a2e7440fc62993e503dc4a76b7b19d8ec4ce118a5892c52074134764d013cd30dec4fe6a805f6b6ff86832aeefc1c727376d728e4b7164eea6bdc5d352303028dafd63cf4261d073e8b44061d73ad17c8f3c8721ec57d6906f39954f8405b7ce7816703b5ca13fb3cfccb8737f8f6ad7a8b5a431bcbaf06d4a71a8069bab8379306be9d2e43f76b03cf5364423e1d978532205b521cff3b1a38ac3046b459701248db98bd59b55e6dc230f72907c10a0232083e60e091871b94ecfb858a271aa8fd3c86a723c2ef51a0135fb00db8adc45c17079e005f65023e7b79ab4498ab7addd8014dd794c17e1f9dcf310c2ef780157f1b2f8dfc511807166a3bd61b3e8a15c196bbb0e24fea4281a22a72230dd2d1b27888f29541f8d5c3b89a8e4f0730e8af43083e9219a189ae89279134f8c48de70c9352efef8eb852a4016b52f5664416ec57079ab3faec133e9264c8991b0532dcec734a22628206b471d1b96a3f8415cd6d3492bdd453774e6539ef3e97e8025637ffd6991bb118315a97779c487129d6572b6717b7e5194a154a71070502379f023e998af9a6de069e3565f85c015e2050b5693fd0eefa93268d886485adf5470b076fda654d013ec7e69f959cdc6dceb85d9382cd97233b52e451e832b9c085c151580bc0515c074e54cc7f023ed4c4c872acf8105170a297a7df1e07c3bcdbe5ab851491f05b1fc7137ae15f86e69f3b3ed9b2b2594de62a8ebcce306f0a36da11234ab760c3c9f13186c9de1ff58468074c93ed95083edcea1461034377867630e2ab896bcfdb51df4cae284fe8e1c444f0d2e0f9460b70a57629d5013eddb5d38777fdcb3cf424fd1f0504e7a9ae43ac160c68df4a96df9be018b57d077edb8e36013eded3e903b6415c8fa879df8caf41f903e585046a6884ba917fb9e47a6bbe1407a665d8280a3efd79e2022eebfca91cbd0f26255c4c0c6846749a166e5155d5fb92fcccb609079ba87d270940037b841ab84f93b93d722af69933efa22313fcaa961312a5e38be2faf61732078a51608910400827a5269cf624f3868409446222893e3bd8183936b9c269abb3dc334a7179079a8529820a401ef7bb875e6197f3acaa9cc93f9aae79b0fa0f8aa3e890bce03e234160890800403daa549326f2ec17fa10cf23fdec6c12461a24d534981b40d032ed73100255072344228502404c3c82c2f3e7aa63a3ca072ad265b96f1852fbd260b91ba5d637573035bc04004059d70e0029ce3e517232be955f5498a5eb8570918c377d2dcf31e4c139145803003073d4405d8958e002b30fdffcf93b226a0b4643d81292b96983eb83d0fdac9b580f6a07551e56ce0d406e6b5e6b02249c9e48069e110964ad198257abff255a58c8a4643af6c38a6007fdff732701406f2124435018f7a3517d60bcf7a1068932cfc6c3468249dc1042fb1bedf4071e9c29cd4074eae1d8d71708b1295e6889be698f7ddb1ab9b04aa7648d9e402dd871315e073abaff7a024087fe41a903236e2995ed0f62613b19d4a7b63bafedd357b42fa4c5f947801b074cff7a770c40b69c9cb214228d0e174ae4dccfc0e87850c57d73902c1c08c14b953d6827360756b754720840cae62268186c5daff4745be80d7a8cd006adf60d1e34c7465e66ccf5d42b050728bb430a0240deac8b3c12332f5911827885f13ca2068e8e7cbc952d3d778a7cb5b2dc774c035bb94c4040e5eeebd71ccad0c70f205907e78bffb68d87fd47d525aacce02ba3db0d6e0e07cc0c46cc0840f464ae4691d268ec54ad00e253d9b5f7376592ef946ed120bc7c5187b8fd5507e13e3a273a420437b1b1e396119224ace2d9b6644eae860a76766f568eb8d2262890f48209070fbe4935024206e00c25c0179b44437fea71d4f4939af7618a6d2d28f9622b1ea03507181607544e6abb0d42422f0cc49e2a6e310eb3f344aa2bbc3452c9598cf8600b06b816519813803122a981fa425924bbc10b0e8b82d6cb604c9dc6b444ce82c24d5b01961c66c043f2e2ad7a07b20d7bc003425a0bd8fd206bdf7e14cd4f010583f5730f5ef131e41f76587fb8546deff33b0317b6adad4268063b78356525d116160fe4424fd7cf2ad73d45e621a813b3263c29e9905a03f06884c1426923b2b6913cb2b06316faf1c04db233d1d055068b5ae8214bc16642fe6d4e07c6d181504d426a4c3d2151867f829878aed84ae15a856653bc78cc9d8e39e9501f63ed3f3f07df88a38103427319c9421de1f13226dd67056bc2fd1237f20da3cb7f0c81e3cb73db2de06407c081500c354280b15bb4a61d069c302a58af9c51fee399645d45411443c8bd3a4956f50378078fe0ae19404286bd982a6b892e27f549e8a2cc3581c5c1ca5a876a1447b5967d5e1bf6d70d078232d24a08429a4ac8398b139fd97f6ce108df715dc453ea89fa7f5870effcaafadd772b7807115d467d21429bdbc9d783714529ed74aebb82529d316c0adb9395387850b721e5cf5c243e07fa2ebf730142a6e2a963d6e04b9d71f427fadb7417b07df083798104fe67fab5a062bb1e6b07bde566e28142aa90d0c0ec66c983864749b9b4ee288fa1c64bcf21ba4474e8d87677a31758561e4f1b42c95cd4c27b806b088c4df0a4029eda055a31deba8573f541baae4ab4f4332b077371682a0142cb5934f90d964ed463300777f37c2aebbf2970c164d42df4f546f8fef2f0710703e626fd2342e527e430c288b482e29295ec2455c481ac7879e76b8ef1434759417a321b0a0797e69f260942e6f0690c48c85339f5dda4d5f1eaf482bb9990037379f34d6e63c6cee9f00b07913cde523942f2b85966df4c409bca601b4dec3a41455a29172ef235f8502eee8751508c4d0758589d880742fef674ed2853b60c60fab42d1898322fe6b1eac8f22b1d982258e4c55a033a03953faf714415ea23c1767899ab9ba9d92ea6edbae54ee9a01e31b10bce513cd03c094d47127b6dfe442baa57f9b72eb4ee080183c0eecf62bfe849b825ca7327bebd028d1652c51507fcbb7e491a443c6774e70afa7d606e498b80f3fa085f499f82479c4acbeab50ecf36c9334f03c43e5e40443dde9aba1f155e6f25a4e10b5ddfb7554191ea0e57a9fa31c9bb247ab1310d038d92a8db4442681932022efc481faf403c6aebe7d0dd8326f931c75f78a6df450f5f3d255ac7c567444df38d9a3212c1e3100288a35ca44fec4965fc5ed27fa7f8f5c8e5f2896a55075dc035f1084451211d1fe539a9f3ae56e68998087dfef13436423cf05a173a7b11bb5d4e5b0730ecf53c014456b8c5e4f0a166fe304d6df42bb0e177d53a13761a2096d8f02bd330a4f97d071c3df6270244744d15e93cde4a63cc7f189cd7054baaf92ca18dce398445beff61bb455e0d00447da9fd781d76f0f6b8f3e8ed89d679318a4b3a38767842a654ca0f58ef092c079d6ae93803448f7ea4f68cf0c60e22f1bbd78bacb1ad2f1190adc26a9e2d295266007fa47e075cdc74760244a21c472903a02c36be32d7a7bfb70826ae48c87718fa7506e69cd104077a3207602ad8430144a2fbf111339d304a4043b4784cb6f4fbe0852d945e2e682f4ed6720c1957200734755b600244acb67d026d8aac4e14d2950b03c830c8c41bb783fe9c8c1e2b0d5bfe218e32078e86979e7144bbf466ae92820db50cc41429a0fb01811d8d8a0e43820b211102868530b32007aa4288bc0744cb179c6ad3a64a7b1eecd7637e768832bc5dc4a81dfea2639098235e9b6a7c03948689cc44ce24ca218b218dd26cb4813b77c0de4727eb7d822a79b36867bd18f57693790788c199d20244cf8fd3e4a2eae5697e697bf30da41b874b8e58cee18728ea526c2e47a4512a0044d52adbc80ba8d6c37b8148941784a0931bfb79a82a1e1e54b710a64ab3f11e033438d9b244ecc36c9925e52e677157528603ee81a225d812c79bbf9b4c5f9dec9a6da70600460a7d64b2c2d415b8ae35043bd250a136fb09c921d875bdf88e4055bf8d0f3d07d4911e931846186917375d2dc863dda6880fc05c1fefa3d970658fd2fd40c218fd7260ed5a075eeefcb302462d15aa04016e5f5fcedd394eb201778903d15841785ebade622d5cdec8c35003d1e193b2463d403a69d1fdfa1501d31c67cd3c996d3fa79cd4c0a2efe6cd5f700901984307bbe9777b024654208b557ec11ca5f183b64e0579c895bc3f8a36070d3fc84725aa7f8ccf01963e5719466473dd536c65decb71123965b69efea58274557a5fd0815e3edcf88fb60f15033efd9740466b557167298bb5ce49a799cc11a53585437d2fd6c595c62fa5cd652614f75907b73f8f1c024681e07f5f7dc2ef798d58353dd4749b63006d1f8c003615b09dacb2907a21250378614d40468ffe3d7d9b507eda6ae6ae67f21cc44071e7e81b23bfbd12e3948905ee121a0722e1cdae03469813e117aed37f15e0a74c2ba3c07fe6e40e2185d828d7205f3cf45dd9277b078a65cbe40146b075aad7c7efead08285bde901d72535b2fc866fb3de4e2e3e7c1b4e071875033c4cd39446b5add7c7001dad98dabc8b2edaf61cdd936d0cd67dd5369998d6b88ce7982607f99a1b8c4946bde37a756120b04c301f7a4eb8a016693524ebacbe89473b187a8baeca26280719f614ef0246c05657d1ea27d1e2a7bda34cc0d139af60ab806de81f8db6ea95ae635ab86507e4e71e670346c9d1d5a16844b249d81efb3b05279d0e94c235e32a53fc8c1917bc12b881270385d7834246c9e7c37deb71f041b9b2f35085fa1dbbfc61d990e7e876faf3e55e21de7052074a8c605b0246d60ee6065514e01554203c2607c075f1bc60389c33851b438a3eccc5a62f5d07b5c6b26c0246e46a2e2f0aaaaa775173ca005df32d5e1cc607489849664cd48208fd63d85707c29bb9de0246edd725897970b80fa41264917f06f5e9c9f3a4330d6fa0f4b3fea19440e7530745a478ba1c46f4ff27c8314374974f52f724bdee04c140ce39b01896a8dde9d09a232ecf49004801b7490deb52dac4a866871891a1ac75a24a835192fc705884aaacbc6c76480729ce39d7044802e4eb6f4c0f91704f5ac67e097de9eb2a03cef0a5243d15266a7c804ec22a07a7c1f76705480d07cad55964fac07b42a11158098615d55754b5bc75eb616dd0ca50e9ce410768eac4a101483db4e3d56dfc7c596feb23074b0e7af0698f8097d36b32f327eb4812f7713b07ae5003a9014840eca3513740dc9dd8d1d6b12bb6f47285dda60123cebed3e292116f12687307743781be0248416e7d36ee789bb302946a830f08b6bf31e4d56b60e39ac4436b2f583d1817071d38cd520248432860c17673d540e1a9bea95bfe7b4604a32d7d82dcc0f6a18d5b726b966d072c14a39b064894bc2ffdd6d17067df990baaa654a6b3f8587d7574430188b23e10ec59ba2607f497627374489e9893494e47fd5906e03dd4f044b0dd3247613f3b190f0d92a54292531e060048acedf6e172699a0ee73e66bd9a20f50928cee56753f07c31d3cb9e081e0f4b0048b893170e4b588463f2583950b5b8b76ae7422d60ecec49e62d247897eece1a072f35a63b0148bdf82e4fc00dbc6a06ac6cd988611cb5c3b6f37d06bb7347c93ed408224955030b9b408848c77663bc845ab0a23d5a6f5a31c1ba62bd98d52ed703810bfcaede0eacb35e074015b56c0248cda4e3d425b313bb7bc91d04a3e120b6633a0b6301ff57b13d1d5a8751cf3f020f8eff48d3380c3df318a708e7b878d61ac3a8b7a343593923110b9cbf25783720c00807ff82a9860748d571ff089facbb445b6590f7618edbd6c0d8016dd57c3122d33b97c3ccd5250717d9e7bc1048dd98f91a2929bd5961fe3d17511ca4460c6b8a439aa9a434ea9690bd5113180790226d3d0948f0b4191c89c25e6f01d1fb831be9026c8f9d1b157a856c9b6a9993f160666303a0f33df448f91bc7c05113180eea24ca8ba533b5e95a0f19086ac41a03985509cac16e5607ea606f60194a0ac432ee84747db749327bb0bc28aae0d3124494b83599fb5981b561b4e80d0b8384b72d54014a29f625fde7fd0fc398ab42c47c4a789d91a027a3ad0fe55a84ccce13b21e5f0b936e73f108104a54637f1055f62b9482ab6af44bfde4215e2f94157d6dabd2419888fa6a6f32076c4dccae174a63a02b81346bfa3d329618fc48666712fd2ffe33b9a3596ea6fafd6322dd5e070eda86d6084a6685fe7760267953a1c95b9634a9273eaff1c75c24ebe2b6e546260c07bb1f004aa768705fde547fa712587eca53d482055cbed85044d5769157bfa2098d74300735e6e4e5054aac86be26ec37393d6b8db136c751d89089f4158a811a078b62f0ee669fa17603d62a728a4aca97bb387c755d0b5d90648e9e1a1304029fc09ced7109c325b01912253e2407b0c2dda7034ada01b7fb6f9ec8b88d8d508ef281191900b76b1e2e8775c63d2e365af8964d075cdd50c20b4af888b692f895c6aee1bf3d61a4bf76a1cb60da62d65bf05f318352f7232d78e69e53fd4afee77e495c08441defa93c43fc634ba15ba99a2f8c4e6381b28a82fe87d85807131c88e1034c1b4a798e8ee3ddd9d0c823617fbfe552159da63e8d16ee95aa1734a949dc3e0366f396544c28790a55fab0da010a28eb182d1e09c6c02bf837fcc0759275965180a4f93adad500194c4a1409438a87bee90d2b05e672eed9d244a3a9aac04221dba0fe61d4b9d04607d9702f3c074c4e74616b68374d005ec07028d27ea2a59942af4577a5123564af480812db4d004c503a683e721b730cc0ae2c576094c366e4d744581a9547df67c33d31827516079ee0844c034c9a33fb9e8cf6e01c40bc0151039b3e71d19e77be7a4c97bd834e51d8d3ba0e07edef009b0c4ca90360b0a834899d651f6129c74022b298a2fba825e9c51c06a21c2695a15b0756fc250a0d4cad075e6a359c096f17813233b83547b6cdb6695b7a50b0ae7472d16672db5b07baf6b1d9074cbd517f51ff28fcbe75dfb63f4f395cfdde987eee879b994d8af94314caf5730a6cdf7b4cc4d95590cf427470c127abe4d50d19c7136e9caf6d335e9337a94e2e268c2307f916fa79114cc532506afcb335cd195366e0d9819e5a5810304bd4de8f538dafabcc090421073e00bca31d4cce145707b8e54a6403e5aff91eb1fb7f1245be75f73d37047d81dc3983e70a07b96fc5d4044cdfcba660a6a31d868dd586f98a4097d510dc5f382fb8d10f0ea1e02b4e3647078ebc695c224ce75a0ade4aef1575883e3f334404eeb8c05acf212dbfef83afcddd398b5d280375fe60854cf8688a10b1d96235538c7800e934e2fc5c49c7025d2e6b2667dbbf9edebb49004e03505b4cf7f55ec23ed4bfb235ecba355b452fb7f03c80c87d22f703a0195903cbd6bd944e0d3abc6451fa6fc5ec64aced9915ca6703f62a9d1c81d5d7637a232875903e038235d3d24e1341216f2a50ce99f30f620f57c9f2d939512c77f8fb1f37e6f7f9991579170753587d2e0d4e2800ccd401a3877474e704599347f88c1087e57ec334f72033327a6f28cf380755a2098e164e2b98773b4a8bddeb7584345c9266345a17980c8f3770f924dc5fb7049b456d07a8b4a9b5024e577963b61f64e0cebd325522b2c189a58fdbd85199f96016ff4146e4106259035a2292a04e6a7dc8329d3d6439aa6f10ba830674c00b51b0bd54447f75d5c50da670034d0e5358874e6db111f3c7d3e1a6e4c99bb9251441ece9c6dbc48954887401ec7e178ae868004e6e5e06426a049b283bbbbc024e888119891aa56053580d285271f4448e587107dc289b5e374e891fc7fb2dd7011466e0d603227c3e9ab8b3b11efbd53a987c71cdb5a45d79077d3c0655024e96941dbf05bb557f98ec4580289d6ffa65be9bcc80ade0baa946b7fabeaf7b07076cc031014ea4bd5eb383f5db95be32a353cf605d044f10a9fc849db06a4e7d0bd721816703dc1469874ea5903193573e37435272308464210f03b4a8c6f47d65a0abbab3cb25158e7607dddb9f1b234eb2477222d53b90aa7e2a73340bd6dd0dc2593cd99dfaa89523cce97e4eb161077057e5f3024ed4a4975b394cf9611c3ff767887355764884eb7f20075af3e490c8f8f9731a0762164dda014edcfd03a850a78ed84d80a0e321c9bff996fb56e633bcd06eddcc591397a53707da0c8128074ee09663ede29ee02b46d43362700c03c5159f72dddd8705804d10a0a71ecb38073d02cc15044ef5cea3cbd8911197d434eaa97dd19ec044ec29879c02dad14f3907ddbb38320785a23d6005500384d22641f966c5c03629730b87e6eb66eeaddfda7427fadda405eb55fc4c071b31b2292e50075a3dfda02a8a3d0434ca6ce8f3897fc2250707c0fd499d286264d49cb71c0050466ef59f73f680404ba8aff23cec64a3a1cc633c671d9349299269ca07af2b07cd9cf5db04504ab9234248b67428ad51f0e1b29c5223921048e7295081c7f95ae9a99e115e07217989f7035054ae98244c4c1510a404036de1b7229d16700046d879c5b8b103ca00501c4903b7725c76506c08a7194f7f19a0b9de026c88bd8d43410ceb8dda7b0bf8b01a1ed7522f1f07f75b6b0f2d5078f0924d48ec3c5b6309c0a7f429767fdfa9a8837e85409231883168a4aa7b07d44d1fe70750cf31addbcd52a17011b1b204df0acedcd55a40a6d2268502817e915a2f936507301ca2150150f06342197bce9b0a474575366a99f967b5341411a9b68c6a456f95feb2287007a022c2240150f3fda79eec6c718c219010bbcea0021dba3a22528ae0ecbf84893ce1767c680050f6286449849be8071d19e2fda6dbc55f88798421456265ba2ebd92053a8d1ad60b8fde50f815b0d82dc4335676e3a0e81b0a53c7e73969a298e7c1d7dd916bef59736e0050fdd0f77165b8c5f10712bb05795da50582a60b4d39dc273e98efffd03acb0e07ad0cd83b015206da23520f2ace13ff43b47550af102e0f1ae3dc59a1480664b8fc9747a70e07f67d3d73065211970afdaf8d1a3d8508c58b03b888ebe03caf9688dc68a4935785097b026703ee81d175521c3a6f167ea9dbe267e29b0838a098c9277224eb17fc464db666fcf7a9706107db54579d0952232636334f1c8ced58128814a2053fc8099a6db003e125ea0788e0e6881a710763185a812d523437e17c539e677f2746940277898909e7d8a260dbe955a510b2b67bc34f7f07815704f0245244677bbcb2afae8408ab1328874fbbc097948c0a6a0ed80a397e681ad84f1007e5d3cd48185250467a3a67f713c4e062b664e1cc96d2f5f44cf5f2f74d1f7cf87525785e2307c91bc65c04526da6e3e280a76ec296f0417d0405d70b97b3bae6da5a7cc37dcd2bc469a629078629a1970d528a65c0d607271abe5fbf9cbe2397b3f21ce7110897e978dee8138f06439272077430dcd90852c22dfd2bd8ae0d77b561f73058bdcf30516d68955b1ac399da587069b34467071a6c02ea0e52f94bdeaeae02b22b43f55e478e1b2c72dd5528c8c5c5d0ee6e8c044703016c076e5eb1dc0152ff6bd9acb0c358308c6270bfe3c829dd6bb220222f0583d2c4f15721996845005410bbda6454d76d410cbe4e624ffdbed70a400dcefc44e4bac8506b042e9812079d02a36909541a9b4973fe8875564c1a6f5d94bd1c59c913b7f90c10fc51048835b6d8b8220370a017745427ce9491602e5d3c1d7acaf73bdf4aa65b8ac2185bc8440f7251985c64d834077d5b81e0015432cca482eeaae9ebc1ec41b50ee5fb2efdb269e60c80b9330af6f7b96efa6c0781de9bd909545b04bca0b2ca0862318bb8248c0734446797a08cfd467ed3394ea7eebbb41e07e6bed15a0154661932556ade0e5e98746f59e2d68e98a7eed669b81bb14a8b5630b287dc5a0bacb84accce01547749bd35cec8653356451298bf16a0ed139a4cf10ec64965f702fa6e3a2757076df68b3d065480ea69cb80ed0d8f3b0bd895e4950128cce2b072f0b582569d36d76223127307d242d399025481bf1ac31e6c4c597fa5582422fc2d92b1817599cc02f09f1e40fa572009080702fdf112045485a257a1d80c8ff84bdc3b2a0d8b0f9387a41d4ed99faa316dfce7da1a936407db20856b105486c5729f41bed2f2bb788832093ba4d5ce498b8dfe5505c07d265aa13b0363c68c803854a3540c02fc19b7c0dfaf92d5e11f1505022884ddd8b92097ff2ebed46d211503841c895b54a693d1d0925f3ffbb6acd93d5eca9d6f11a5bf2c69cad8d5c3109f712b2270031220a97554b2e559afdc66678243087b49b95686d3359dc2491a4c4528eb70ef4800014507665b8fc50d54b5ff48c752fa3446b760af50fe644c9f085e948c362d79b84741ec30aff93107f8b6d4080354bf0c575e27184f0f5f86b584aa3262effbba39980ce2b51ee2a44b64d0645c0054c662af45b5005dd1a98f396c8c57602ba1510abf47a51ed5007caf9e86980056d4c94954c7031eadc740febdd7502804da61ba776b1ffb57f3fe2a7e036eab32c80e6007db5328ba0654c9620ad6e2378aa72e2c61a1dcccde903634acd4b77ea8dcc399c90c36366707f54bad1b0a54cf6ed0fa65d71f2d74f99069e01c43023fccfd3f0bcc082bd2b13393eb096e074161184d0a54d1036f4d600d69d988e0ad9800d7cfe1ccb9a6f1a5868f3fff3189cee9fa08074b2fc06c0454d1249238b3809106c82ce67603d326bb44ea2bbab30908cf15a619435dac170796b8908c0454e032c3d5bcca5715d83b1138147099bfab3ab4dbfcb3bd5617f2604033944a0054e2cbc58317574c022e09f271e902f9371678ee304441c7da8399601c63ea0882291a7f54e393a94709e2db7822ce46d50f3a020ece17b3ce66513a69d70af13e5a2a330749db1fd10d54f90050bff29d13c11dbba9f7869d653403e62ba34f1a14af25434b80d4d3380054f9f0f13685a9a73e3fe9bad73a562243e78e2843660e344a1861dab9c69e15076736c4b20554ffd5e902b79c9ba8a2be59e365d4bd82e11f15f08904e76a0f7650eb05c130079abdc98d0d56276491201b82c89cb4eeecf393ea8d63a0c5464a3b83c955e96369e7b73843071c3bbf1a3d5630aabce3860a087bc7e3e82f2390b69b0aa97382df514e18698573e6bb8210079f7bed6d02563c606ba133d484ffdffb1e72e85f9dca3ed0b2425a8e763d84835ed2129f4407997863d415564e4cf5f2a508a0b88bcf910c67e4b877385f1519e76fe5b9c1de327a377456077d8d9fdf015666a60f74bfb88f2284d8e11e28a8e7b59a1fefd53c6151e9757c5c39a7f64103fda874455668685cf29bdef2c14f23c032da2ff30ff93890f74a85460dd959a3797f44710369cb607d567956428a2376d64dcb9427bd6b659a1fa58079f815bce7509a9f563b18b36207aa07833c0156d196a54dcf09239e4fee5c71895c5528501d283042812a3fd1bc033406263c07046b48b20156d73f0011e5dcbfa3b8d6f9841168f010341fea9b53039ef13a979fac40b476da2e381c56e54e353910aad0d7c59da89bada93eeb32dc25e97c82517f73d02fb09a9015aa8476ef5809bbf76cc74e2dfc6dcda552dc4d8f981bc4f1ffeafb99e8000c593609634a0058443d17bc528ef269703a93ae5e1acd52225a07288942a38e6eac96267703630707c201b50258455c54c5962c5e29f9302a3eb7fd5027c3bff8770395c2a8e041acaa98423803428cf0eb584e5aa839388e648407eac7d9046545c648c5ca30e3f97f48e4444dcc6e0c61070ac0681d02585d6cc824910562d4a7ee275ffcfbf5e0ee05c23a7396be237e902da188dd7900586b5c7e685def210a4f729098f0b19c8f5d4c8b39a722fbd56a263be094591a072964acae10588a98eefe4219df613d01ad9a952ae643057bfb9ffeee6c2b35fc7fe87e5e7c07dc529a9f10588ddd5c2a556f615dcbd1fdacf0ddd9ca6aae5d6eceb5e16e3e224e1767280607c94614fe53588f190179b0eb674f6254aa54cc858323bcabd53d175b56fd0387e8840cdd1e07d6240fa713589297f68ad3ebc104a370113070c68b0cf1a2d8877f5dab4cd1dfdd67ac003707a5c79a4e26589b0c7dc05f3eb5864dba0ebfe7ce78043f948203ab2713ce858dfaaced375207fae51c620958a59491d0ae082c477d88ab9c461d12696225d387884653189d0decb17f842f0741a214aa0858bd706f710f9353a437d570b9eb1be2697ae06ce42fd59dc2c9154560c0726807392d34c11f58c3236ed5851bf36df8ed56b6dda39f0ec66e6983807be47a6f28c40d7bd97a036d73e9c458cf4b12591bb34d1406ce81e693be938958a0336aaf7ed7813e816b518da36d07980caedd0558e440cb386a3a2c3cd058fb279581f9fdbbfdca5e496d810d6f08d4796c6023074edafacc0958ef0f8a7cc80014327f582718d399b3faa1838f736ba439bb4e54c4674fcc1b03a787d4405a0345fe72018c8d2f7d7e8582537ce711af6ec10d2d87c3486a1c640d9ac470005a0c448435fa18d68a4b0197a0b1971dde46013ffb7d39ca6c37f44dfa96ac1707d7bc2c6f045a2eab12e7a1e7a02f827b91ef631d767dc0e2a9b49a240fd576bb00d0fa922007deefebbe085a39ad6707444863b59c0fc879d5a932f1824fbef6fe406d1dc72d171934ca10078fbfeb54075a3af3a2b0d3377737f8927edac913ac730ca0cfd232017d1c3d2c164832a603033cafac5d5a46be42d245b3ce584efe5ffa8c1ede23e80c10c14265015778e6bc7abc8a2a079acf9273025a4fd81d2ae6b235f70e01a469806840542a7a8aff815ab4411cd9d24783867f005a52c4fca90a90963523e08a1f9806f048586a11a0eba500e7163ae923cc54550bc32a43b80b015a55d3475acca0b3d4374e8c1ffffe8a5d0d0e0297bef99b9770fc68f6cacd1407a33a22bf085a87a9b988c8778ae7d3e08df564263207c42f7de0581dc2cf48c3af0c87e2300765b08bac0c5a9e6e49510393687876d6c54d8f8ffa40d913d0bad4a057d327484a54963d6f073eb77da2025aa7f6abe831f27c3d5b946fc10e6584f11ef40bf6f82c2611a9ebef970d456d0bd81833a33f025ab47a2d2bcebb530f195612725243c4302993d2e4eacc22568c474dd9bffa45005ab84a4243c37da9e25147cea9cac740575318d703492f256bd4299f31370c7807c32ce1ff115acd55b51d27d1aa45938a07094fbaaf8d8631ea286a5b4df0e585d94f682f12005ae8ea3df591fbe96b2322c17ef4ca6f384da1c791f0782cdede01f1f323680907892a142a085af2583a66bc9d2426df6ea360255224b2da49d23ca24189c28c4a7119e3443907427774ab0b5c3357e6232ab38b0de2bb7e5b282f54c078904e087264421fee1f05614b8f280705512fe6295c37b7a5aa42de121db333aea11733cda2a0fa4dd381b0cf6afc12578a1e5124071af1eaa9015c440a99a732f0d28bc2b6e718cebefac9b8dc33bd138e8aff14adea19879a2707b247cea3095c4ab091d690ec858406823befa6a9e4ed638f5879684dfa4ffd56e44ed1d33107b8cc87fe435c553ae5149499977df78cf3d367108e6ed4cf037a662d3d0bc06d8a47f7a63e07d6d7ef17015c60ce5d90f5c0057382d8f709db6729d5aa1dada782dd644d0ef4a04108b9020702a8ef50025c670487b4969648c511d81d54cc6bf4a7578788003b33447a42db4938f0812d86c3ee8f5c6de295663018851a71a4454314d4ccaacd3386d5b50cc787f2fafcbbb0577b07ddf393c69a5c7dbee08091e27b105176e0bb2ad72ec30fbb2e0713fbf160eb988b1e93490e07a960c43d085c900e1cb88597622810ad3a352547182a7fef8213c7e09d995634010c8e792b0723c12a65055c9c5f801b87cdea4ff2dc242171da090139e8e22b49c4e92934ebf4c2ee10360700438c09015c9dd64b4d741cdace99870104d865c45e5f8ec6abdd93fe315b6de78980380303358c63515cb27627ee65134edf19db0f96b422d62cce189f376c75a3c9f547290c69ec0a07c6ee69915b5cca59e4ba55a4284ff398ff27e8b143a0bd58f89768fc5643dddfb6fc96e46a070ea231d0015cce154e8e40cda2e37c8524ef13ac99c573616eb4f6ce70105745e8bc85486503ae2e29705cd943349b5fff561b18205e9b33e30650cead7863949ca5dca733957939375603b37889b55cf23b39a3e7a097530e1d37fe4218d8ed80d2bc452a9bc2007af838f05fd758075e883425055e03b2b49e0f0efddf1ba644121408fbf71da6e26434867ebb85fe978a82c065034cf81cc95e23679c81075dd100dfd40c173d26e6e161ce55e02d9cb14da91b12223cbf4b03a215bb825e26cb0501d44cb71f7d52739aad8496480ae8322b9f1a93c2120cbe4aeeb5130799fe7445065e396785fb402e5f8915243dc2f5d6017dd936f0af7e5100ddb2dca6c0e79a7f07edcf4f08145e4578fe0a9c9df83fd4a41e663ce5ec43232e25716d8a3c6bc48a808799704d07160796f1745e4d9b87727a926f0319188b3ed93c0a818c36a11a2e9e26493f151d01515958079aa334dd025ea6038ef9516933a631c2a62658cec5e12fdcaea73fd239d712b6d1eeb4247e0736f64f56025ea78056017576b6674875666f703cc4da2d86a4f8aedde2a18d8eaa42389924be7b29195ebaa2454473cfc9fb4865d3a3d729f17e42beb4ae5167e4d5da7f755e627a3307174b989d0d5ed9a75013e6abe389dc20c6de1d51c8959ee2de433ade2cfa41be3724dc637f03d79318455edd32449ad5be7da6d1b327b3de7100146585436cfe03c2e63352e6861a9a0b076883186b075ee3dbfb167f9b25918bf07eee64eefbc5329729935e1fa0aace51343c34a517070af1dff74c601cee7e746f6ef1f2a2448dc220942456d3b10b159d6dc2e78c3df25212431d5e33b6df601fe2973ab7169ccab123a03cdce32bf0fc7ab6592acaf57000bff68b74c9220b40bf362d510160325efa50e03f194d22861e9432c5c998f1296fbb6a5302706284445482d057aec08b286038ca937556ccf7b57f361b1e827c88e7e4068b83d1c05d7eec3992e322d06f03480c8287603e8080bfe3d726e9791ab990e912791b602146945291b876acfaa01be4992c074349621e02605027dedf934c957e2517e8c233b7e5ee21c8040c8383301dd321ec76b3d85807bef3e6c530605fc9f6f5d254d440db8455efa5a9fc98a9c5022dab96532082adc754a25b49077e4e4ffe0260642f73452bad47ecc5c1d1e2ecc26beb42ec6b07b7a984b2bc576dab4df14f03a71580d7606a309a95d4934db7553b664d72a3dabc5c56e649483054ec1174a32c7bc13807182e3624026080d1feea4d424456814deed0d5b1afe281068f99ccbbb0f8d5acf5f7a12c0807ffbd7fda0960887cb916a621031299c5f37e238ea883853e0fa6de75f5ca3fcfc868aec7060765a8e3e02560b1d62055b7802c31fa1cc53f4dff27107c43c57231f71a685557853700952d0703797ec83860c31f3670d9dadf9d9e3496522fb50fdafc7bff52638f2dc72476c65e27aa5207aead8ad10160d7abec5bf14e6b005e54d660c03c22f61399a333b6884a8b8e84b4e2eb5a53038313cd5060d84cf735cb62bccbefac6c069eeb64344d52c64a2081fa2fcef4b90e8e7f5a07200542070160e2d0e9c17200fd76038eea575a6a29f345b74fa90d227ef3933565eb1d813407cce78a360360e46b5a997d15d7b9c2b8d10d48b4ddd4e914da77dd1088c8911991313fe8360717dddbb50c6210287150a58fe2edb78d721aa7aa7e41dd4ba5b0d1b34eb32ed3f96b08120a07039ae6be036218e32f25ac95ecfc62b6762f5b54b3e5d2e3fd0566f845c1e3e2113036476e03a5f404406219552b6eb3f93e4e3f8a579be685a26b393591849faddd8696050ab8bfb938074a4dae1111623e0993fa0a50e87efcae668cd90cd5b9f30319d6407234b8fd50a592664c1807dd55fe95086245591bf5f03b62b9bc40574b795a5b683f90d911d75160fa738f5d20ccdd700e2540e16247edf0757f6c4ff0c0e4eadf3293b08081d5c7c708631a7cf07136ce92fc44075f14ee88016253108fb18c194ce5d12de0cabf512ec7c3f97b62d48fa63c12317447e9b81c077b85e7dc0d625cac3d0cd5cfc7e1e93f08ac13e08f901944516d2aa6e1464eedf47e973f39075d024aff016283a8c1d072cc47eb59294230029591178e36bde2a0438afff0eefa17a7b162071bd8145b1d62858836cd61ed89a54271de3407f6fd6ca24b149fb33ed037d2c6164673387300628e02914567a9025f088100ae98013607b06e3d3e97df17f27651d12c799d7ea2f28efe6295d62418697bf6e7ac79b5bfed79f3d32768bd1c61f8595ce4d52f0963a56500629a245062582932510ce30e9c4077a1def1c4f467b22c03bb3e91a702598a65073436b4610a629d36a36dbfdb2e6707c97132942c159f333529ae1c0173848f77668a3f6f1407980e34e30362a00903972a40b68a183e9cf79862d4acb5880ab1648f79f3c681273d5ac76a071ff40c6b0862c6e62fb2b249a2c318fe272731714fe9c52486c9e9b3cbcb73d130786ed87007158814420562cb2dc237408ca8f1ca9c373a507db7bbfacdd38e166e289c7a0b8eaeb3e9180756e065040662ea7badf5069a538e544c9a6e1b24a7d3a9a522b6aefe70647af2b43e5df06507ce921fae0162f7982f1e4ebdedcf540bb197cd627e2907d82022ba5cb4b4aebcfdb2d90b65079ece30ca05641008aec734ee4b39eeb0537a39faec67aabe45b8198de4878fe2d04e263e7c07c99962ec0464110af7f80f8149419f46cec49f36260bbdc7eb02590325b3fd1d754330d17b0728e738520264280f934f13f96365572fb4e6e32d3ea05ed27c612811dc174a06436bc9b5600700c2dab630642cf352779858d66cfd8c307ea5ee69f62e17a4ef9f183ce67409700cc6227307e9873cd30b642dbc29da1d8dcf117d07d7fdc29b16d044c8fd41f3b9076bf83f276199723c075412531b03644835dae8025c71634922dcd6d5e40ee2b089ca30405cd767717cb397dce91403237ac56d6458092b2ee03f5116a95a7d7afb2736bd8eca4bed37b76c243fa9a26a20467903ea29db66645e1cebfd4ef65027c4070cb9ffcc4b953c7c8c256f1bebd5587672ab4dd4180795368c0f2a645e57646d922a07d72a2282c219719f29cd99ba77a2dcb0a1ab85d02a0dc50407c19f8f09076469928870921fc0e16276a6928830cd89de8822fc020e14e4ac491481f3b54107a46fa8e601647dd78ef7e914b5fe010fbf5fedd49a3fc102bb9d65776ab9253c379bd8fc3b07d782b3141c648c6ae5caaa470f99d1ea66c1503091bd5e785a67e2d5cc321e62268dc9726d07f37a8c6d026493ebc3f9ee90f4d95bb5721636a82fbaa1cc8fbabb784810a7542a07dbc71e03d414edbd649cbc39faf2c672e600bdbc1e3e1499b8f1ccf209b0fb2c5020ec4f736df95e077c7b8d980164b64d2a3f04a9de6deba3c9e710f628d5a588e4dc83836d4a8fbebdef222b06075a99c5150164b8a67e00bd36e11578021af20e612c2b906204bb345bdbe41a23fbec7fd84207764d12e13464c1cd54d68d53102323986ec429f38e836c9cc9f8c95282c699d0284b4b455807e761fea60164cbf2525f1e1ad1645e2d1a028f4ca21609291bcfe11715245be8b5269e13340712cdbc090564cc65f8ddb6b86e91bf4b8d1e1d62d320c55635d258330fd8d4558b71b95e0f030029be8b64e14e95fc40929f108caa8929a0d5486f9f355b5a60b5730fe7b3de3a36ee69071a4295c90864e51387c629f7852195fde79cc7c5119c7ee4bbc0da3a7f3e9ee926d6fd955f0bb9b564d047016607616ed45a1ba992efa5775337ee9a2c1fb8ed50969ffe49b17dc03fab51320734715ece0a661367bd931052f278900ab94a6aceb710038dd73a9a698509308b8a0d20e8637aa1221a661a0ef3300d7e859722349e3299a373c5cd3ad6a6ecfe43626d0806110e100807bab6de6908661c2d7f251da588ea40169061d9aab3acddc9dce357c2a68f1dba39d9c82772079f0b1b87016636d73a5aa4e77d5e216f399e4fee2e3c1e2246bb1f0b9e90af27538f7f1a7703a5fe724066575a595dc3b0d3cad02ad11fba60e08fb09523bf22c8cf9f4b7664744b0e1907b4d8c8260366681605d052a076436194d76056502b204f2316b176032f0b480d4729ae9c7d0b088e30b563016675900464e47c29c53c6844bf104fe518c235afff8ef9ce2f24ec7c00b0a2034a57eff7667e1bb0a1e35f4d704f5c923ff0c460895d59a354cf45e730893b1a4371ff0807d2fa1f23066683b2ced1eebab94f6bb73edfbba472c9dee3b405996b5ee3f9295872c35b530066926a50a3b5803b9cc6f2eacbda325e8d4634ddf9dc0da1742856891b10df0007805802a9026698a8948505d746bb4cf47995713a8bb0c1c48c66152b3db7a629b264f11d5f076f7fd0ce0466b156c36180017545d6bac9341e00ab4c8ef9f0e67d6ec12fa5968c9d076a0b07d4d6fc4e1566b22d820a90b5ad90708542ed5351b00c4a6d968871cae8a656a98d1c7b757c03f33b0c4066b96f384573679f6d719bd806d64e8ad7e9c56349766a37e52f86434d054d0a07bd92d7060566bd9f90359c9b2c6fda8f756743d68b2d60c9bcc066c8efc17ff7ead894dc3d07a1bd776b0166d0be5f7037c49d1afeb5be38acf4ee5cf143b9d0cd6a5e39a213e874103f35c2c4509a66f2a3bf65b723ae31cb2989805c8f52953e5c52d42edeb30472b09b97473a1807c0540f63186807e7733472b8ca9bf757aa126216c8e50e6e7b5f5c5b5a29427c9d09576c463e00067d68316557f862fd086197d78988d7de59b1ba19fcb82eee7e98cfbfe14aec1a570784d0779201683bba92d196294685dfed59f0f0f7ffd7a20c5d31a65b58573133ed9c90d96f07483ec43e046840bab15b3f7012694f473b813408334957d18c8d1a6e6addc7979c8e87ad4b006865521c095c75ddecb092f0957844f88178a5b1c998160bf29dafdd1bc1ed5507b580f026216873e5302382cc0af4dad70d73b3f3b48e0710aef017af6c104c0afcf4f4604f0766e5c1b5306874b923f21fbff0c0bef17f5c6ee99602bedd8ad6bc2a7c13d36a80e7ec6a540b05e383774701689323455c739ef50bd661f3f577e6d79497ef635c074f93bbb54d70e36b8f370310ddfaef6895e57c0a6f9de15e8b1024fb3b99b96c32aa47ded0c7274c37be2dd98c6b4107da7b4933016898b24dd2b1477d88c3fb63db3410945f89d6eeb7d1912ee08c0ee8c4f9ee6907bb8d43d40468995dcb843220d68873f8534af16d3c2d3f35c6b496ed10aa335eff4d11d47512217d33689a69890b705f18ad2465dca2822f5e214b5e3bcf1042b0efb9a3f109c533380728fcda4501689a9699490340d2b21c8e79ec2574382882b40b6f58865f4a15f788f8847a060366299ade68c97a4a4c23902c84587087e10bb53e7f6f5bc0cc0c84c922271302d9ec282207644157924b68ce246db66976d2ff03b0012be579a2703950874f57e26df771e2b62474c131070b717eb00b68cf20edfa9436e54a78acace03d8f77baa55c95ff6ee4990e4647abe42daf015611094b68db6a42d17a236ae915e754eee7788c12db0911e81052a72c797e5171f94374078fac4de70568dc68aa6881b04b36b730d2084523d172a38b6fe5c74a349df36abb3e728f6c0718d22e3f036a08cfb2dcf7e643c3a1dd6315019f6661c67fbf34e8af5d8f5771cb0dd81c5307ac4e1f03016a28e1563bf0d582e2cbebd569a2a163652aac24237016d9023b3b78f4170e770769d11eb3016a369977822c9e2c2c0d3d25ebde3d952977e4378c0956d6a0cbe784079afa3b070e1b3e2d196a3ff8618ac679c00e2c7e194917bdd4a3a5ff1c26075e1a82e03a2023973a700797116d83026a601dec318822dc4eec147c6f3f0c9176f1a7b78eb8043da4d4d99caf2ca60907ad6af1d6026a6e2766e23cdc50b259fde9ed7df0c53e6cf6e2faf2504daac1a02b65552719006a7849815c651704daa86e782d9aef73aba48645d43ac52e2be53782ae11901b070bec2d280a6a9108d465decfe2ab87459493118ed6a1c0a72094c364981fb887244688a658072cf828f9986a9d4da770040fc24918c6b1081758582337d7442d93b14734d6f2cb2b0c1d7607627267e6096a9e7fa99a9644985acdc12a1cf5179333806320fa26bab5adc75490f1483660071e22483b036aa4f49c7412417307893a79024c10ee8da95ea61cc3d8f96f47a222b3a8f52c03d25cc88c6aafd3b3faf2b77683106bd813c37c38f4fe3a5e3e5972532c1c3380454160440778076b98066acc1384c1e3ec80efc47dce48950f157b2eb42fcd03682368daa78d0182ae5607570fa64c536ae4561643654467cc8cff575c0a41669b0a42d62e22dabf39480590ca44f602071740c3ba0e6c0b7fb91aef788047181b6dfcbb38c8de655645bf86ffb1fd7da0a9f372a7510769be1cf6036c1d2164e73d773386836a71f2d96d988ff287d9522987184b0928538dce5b6b3e998b276c448fe772b269f066d1b5d91d78306a03e50d68054990b61440dc8098b0fb290701601322056c55e3a407a8f0e586ee79f466003bb9d8eeade6d308a78d8373ac98f348115607ec7f6c59036c724573f082fcdb78a61dae787eae570d495e4037300841a848fd6540b5ac320703976179016c76cf7d203604756038e2fb2b6504f07128cde44a633f1fedf6bd9741ae261c07c2d97c980f6c90ae7a99a4d467a36f1ca62fe0c34f7e3f10cc0abe7ddbad6ac2e3b487c33b006c95231408c6531d3bcf529dff312b5af6fbc28361e32f1ea5d1d3d0c2559c5e07797c88340c6c98d39d6f829a165524c2dbc5f0c69f0ed767d746888a2252b8afcc2dd27a4d0359f9b94e6c9c9b7f7171bde281c50dee6b06498195b1de89546640626a95064d6244387a07ae4b57a8066ca6b5c7ac407102ba67ec37b2d4715697c1c97682bc285164c97cfa0a2b19213aca368b6cac811a230a19ad2a05b7419f8b884dc6eb9214066f730f84ed3fb78621215f072f7b204e056cc602afd38f5b5360fc147f82556275b8e3715fa8c12916c3b4af96d5d9400607c0cb6b4f0d6ccd0be52776ee76bc3ea79eb8cac4059831f624aacb24635267b53f6ad5221403705c1c406cdc15174afedd5f45bf86d7d1481a5edb02622db90270d0a18bd4ec9891fd1c006ce601a51ea2d11d376ac762b0eabf5e6397d10caa1357e1ac7b38a8b608e90c073e6227a9046ceb3b981a91e9874f3f72d64d7ddc3404b95b1516afc348325e64bb13b89d0707692428e1026cf31da9c683ff90fc937ddbb2bd97dd2371f98acb21bb9e1998fcaad73d9e5407e4aec025026e15a5d9dd3b68b97212e5a175bae4e17fe93b84c4e1f9164f4c3ad3e35ac454070a336fa6026e2a29ac59e90045a95cef0086123fff6959b335b8f79cf3eaac428fb33cef61024d509e6e4d931eab2c7273a48f85ed7a5f7ce2bc45b0a778278e2f77452973d403151a073faaf9e90d6e5bf79c3f708e1243ca3ce1380ea82e5a2e640cd9952dcf1c389343153c647f2a41d55f6e7c6cf7a358f5b1adcc7025c633fae7f7e0c3fb48bb99c335e932f4c75a2236006e7d484d077c0df2719cc0e13ae161664669b61ac588664ad2da3f7bb284064e07dfc375ee046e831da86f25bafc7d441b733feddc12051164143ca9e4dbb895aa6b13581e17077c9f82665f6e9159b14d1b8b7a16a8b415904ca2427efb9cf9dc37c14be184fe999b1d8502072e74de9e046e91df67a8001c1ae238272b6a1e70434552b01829d89fe36ab79ab474c60a6b006ed889079913dc81544a4dde233ca216c89ffbcf2f9958332ea25dfbfbe5500f03ad13b2516edac50903876dd6a37ea27df10722969ff81978b80f93b19e8f639548e28544070a0b14cb086ef0152af8fb10c5d1c8f3433d5e902ca4f2ff1b594b9823b0248ec389e5022d073287abb15e6ef213bdeb156a1705445b9c56768e9075ac4f166eed5a765edeebbf04eb0b20075d9eb155076efb8eb30329a962c36bd9d09b25e1ad13fa992caeca971784249d7b7de72b200749b330183e6efdd16c8c4977986a92a8119a2210906ad7a936d8316c2b4b13bbef9350e822077afde578077004e084919aa942cf55f068d6cafa3a9a1738da92bcb00aa928a0823c5a117607031deb6a1b7010eed17a0c6885db44f34e6a34268a3d048691c2a671c9e3104ebc6b169063074771d4ca037024d5723924607d39cdef61e1e1d66a77c48e7e5d642584ccfbbd0a82b52159167252fc702a9428ce04b35493d5a3db0c748383d1ad32da1a7d359559da7cbb331f372e032510bfd1704522645e8f57fdce025cd41fcd6e8f5ede36fc8a023f3eddbdc14370c22e5d07c5afcab804706603d64523bc91cfa93f6db388408ce024c96da1f24380c6bcc7857c26cf69070c8c0377027069f915accad0ee1bb579f4fd81898d991711e3935675575d6f02f42b9ae91207f27e55da027071b2aee4ba6408bca31eb8f351bfa334780e9307bb7bbf61d08f6c876b500807c5b1e0eb10707a30659dd2f619cb22e4c5a4e75c8887627bce1bf496500aab0432aa823b6e07d4e2302c36709515a92f64d0524da8b954137fd5115725314fce8ddcb4bdb9f2ae51e9f5470b2930b6bcfd027099b092adfb9523e39dca9eaa9f1b73bcfb8a0fb9876b91dfa3b35f904e902607d07053d50970ab81d01a6a02e556891bb7d69634f67373522b3a9578969e860cfc1db69d1407d1452d5c1070c75e43f049aea0f9cb1385d38019df5bbee90e18a36dd3d6e73cbeb0cb6466074473fc010770cd0f0a9d16418a56be575f9af861624e9639900d94a9aa098ed74fa1b557440753515b503270e55f149c41900517d3ed276492ca657f044443df9c8e4f3e336117625eb37607ba7d2d382370ef9f441fa69cd86973fc352f7289d71dd306f0e16aa9875ec64d2acffb420907db32e4dc0670f074b9347a5dbdfe386759b6cf52b1c63e49aba87f587a17cd3662f11b421a4e51ca1870f5df40633c71c644f588db868cc99a5d997896d24bebacca16a0fa9817b9050b343c94b3630170f8b99c23a797fbc4f154ef620d02744564f02af080dcc54352d9847999000c4a9eb6ab7200584ce95351f83f2b166fb4e3cbf86a53d779bf7d7302232b2efa75fe427f07cdb666b15b722987e5c9c9427c4295b6b0462f0b87350f3e5a7a9a8a2825c0147011236d76074f5060960872415f76d3a9e178aa30ab45c6ab114dd7d94f2294eac1fea603bad8ebf45363073918286401725d150ac6e10a4356a7d7d3f9845198bcb35d44927b51a7d77e6a48965c022f07c1fc2d5846726c32b8c207e231b7a0b2e9bf209d63fcd18f9585ebf9516f10c5ef4bff745d07ff68a68402727621c089d00fd7be8fd2c8afa939cf7456e63d36971736420542acc383ee040720296e7402728ede85e86b4797f98c8a75fcf568476d2dde8ede7b586a552bf0d00549991307305fa36a0272e5435782fa465b4583e6658a4e95b4df3dbea806cecf0df4f661d6a8851b0f079153b7d43072ebf6b4db0a6ed2932ca7470b8545af0f253cb8a73d1a5270dfb31a45537647075a65f0dc0172f2331ea82df5c4c9b9e07e95c702ec0ffacd5e0187d0570a605a5b4bcdcf5907c64de6c41072ff35782e852aa9b0a1c3316449bad06e7ee656fb468802a755361d35ceef0f07c833c406077402c0c95cef4a65a0188ff7549e20de8bf83aff3d53e5c81ad8cc628bf6391607cbd0673a917432340c2af178bd9aa1cfdd10d6fd2dba1d977e613ed7233118fed6e60f7c46077e1550e903744836ec5f37b7da42e89d2afcfd8f1a8a6fa06112ea6a8e675af0247aa8252407bafc7d6b2e7448bac49cd7211c2cf8d64eadd568702a4264e0e58684178e8193f4c1f52f630720f159bc0f744ed1cb1d1fadb1b701608a1d3ed45b336052c1d795e2a573904cca0945b2500074556c519abcd91e54212fce5f258db0f88e303ceeacc5b39a50cc3bd6a2ad11070a4357e7b97468f2b42b0a3aa81fea711488d295f1d4cb972e926d470d2e0b0a7113034715074a26f5531b747004271e8edfd01a965f792cbadab67066b3df436a97a34fb99e58cfd0ee488e910eeb748293de538aaa33700b746d8a1c0b875f0f9925cc61563b0275f410119db80707c296858e0474862764daf18e025765149cbf4342415ce67ad18cc9c3eeccd4d0279c39dc3200749cf40460ce0260b767df2a89bc99a8806dc5377a7b95b7a39e670e35747541072c6714c20a74b47b42436b761eac29674dd43985dddeedb3602877322e97a78fbf9c99df4907c79d7f450774c6ded0d9412314e1877c57c073b75ee8b7ecee0b3be3f63ae1e96440f5b43e0743ff12170374d1a5dc2ac3823614b69d678630711f50ef9af8608938b6bd28615d2dcc2c77074286c5440174d33ee01c4544440bb56da0b4aa5943b8ef8cc834ee812c644235233e7d31639e86b49e74d97aaba0c7429d1588548c84159c439c440743feb68f17dac2985f5273eb3407afc7d45a0274e65e42583f4d23cd29ca83632fc11101d3736311339f71da7cdfaf58be0e060747a76a3301763a928b4b90682bb01685d1c143b5e4712b36b1762de7ae31819e54bf8569320385395d40763d32f77cfea57cb6e6702105fa463a8ff3f7ed9375bff201dcaba05c72471e03ee633740764283082cd05f30eaa5658692ebf6a78d1c3f0c78b3288eea959fd55243512700764c7b5c27a7a2a1f2dc44dfa1a5f2f9d9ee3d510de2422646a7433f0cf4fb75fac604aa7657938e63596f9e592e68e5302607e56cfc9ae4640325dada520f4d6a866716071d15325001765920d70707639dbd0d9f928f2f26f3cdd26af0cdb23fd389abc87d447dba5707717c4f09027664b2d591b8c13c1f0405206b2ccff2b1756ac60ee283cbce78789c4fe94a210768b8f3fd107668a75ea829a11bb276edef644b098bb0d883bce6b99ee18b262d761d5ef55507bb492c5e0a767befef70bc13192fbb04493b928ee79d7b49aa986c2a7bfce24af823e7801407466f42b805768189b3d4a5b906929620ab3845a3a4e627c4e16f0be722fa37853b2b14e65b07f79d0f1e04769323295817b304dcd19799ae34eedb62411556caa5d966d1ff75eaf8a3a47da22f2e63769a7505c2570851bc3b289593d1fde785897758ee1cd37b1d168b22f750d46503b4e6e96676c02870feba3cfe77b7e81e976384b8d558f873519c0960217aaaa4335e416707e68ef0890376d68693f00d27f93b588645f44a3d642603882f27072419fd73f1e0697de13003b56cbdc776de75180b513a35843dd96c333703d98fc66eb8e4dca2e4d9192012b4be8f1e077350bc2d0278020cfeec19abfa65db208544843b67dee746af5434cf96da245533619e7563075690f3bc0478022ac34dc42b995be6be177032ed10d4201c30b2c96e5d490f23da778c8b640779a419d5287819a62c4b65cffefadeb70d1d14f1ecdef3429a55c26c5aed0131acc19eb27f0baa3537b563017823290b806d948955d7fd73d220e28b1931c9a80766a5149c66ea84f414ef3b0704f8339a0278315334d46a39302df13882db451f64cc26a1fcaff43f7f12ebf1b202a3f9770722ba200c4578416783bf667c2cc96c7baf1944fd805d5ae302d85be82610e6184e39b244310702a6d46438785314bf55c799109999361818819bda594da1d8262943512929c4d26ad25d3f03321bf14e78533aeb8d8c46c8697a50862f3443fb1442936ffd950ec3bd0d95a6c6a0d71003e781d8447857f8cef849bde29b73c84d070521e609f51b8d6dcbe80c38d5fd26c24539456e84d9c17858b222d33790586a3408ae408dfe76874cd70927a9366ecc2c3abac6da4c5d07abf7236e347865950fa4c54fcc2aa9dc9f46eae2c09e54b280bddc50fc9994316d3b0103140748c41f473a786709e92f12eafbd3400fabf471cc1933d2e85ba0a3c239bf809bee245e013b007871455c59a9bacc177ceacafe4ebfc1e94a4b82269409712ae34bf6d3724f6a07958467fd11788b31e123d292962492e297fa28605c1aedea3ad39f5a0f05a9f78d0ef19500077f73774903788ee76418c33e2aac4326f23ab964cd8086d6beab9a9ef0993eb9e73291a828073b493bbe047896e8015ce292383cb0d0906593692527e7861447b39a3862b40bf528465d76036a111e4178996390e58fd2320375774791adb97b15ed6170b4b8d87238aa2953df181f5e0078a4cf0ea81f7f2d73bba3e00d49bb15afab8fd33fe93d11d4a128aa5196c47f0780e25dcc0778cb393775582c02a6c5295133523686381bd604601e3db3420dfe28d4000f3b07d992da620278dc4b1b00ac025ce4c58760515df600d3ed0c355f550f84f54fdda2f1cfd744036c56a38478dc907d2cfab5bb928d99f938a8ebe79e89e7c5874e821f41002446f2619103039be93f8a78e357d4cc574aebe44ba41d9088a0f26fc8eb631d34076a3e01490d201d832a07247400900b78e73fa584521df68facb463916d4a2ce46256edbed483c0515f1fd6a5ceea2d07b20884c20378eedb3564cf16fbf4c7ca6f76a055fea5974de63ca869bf0f6094385f5d4c7907f033067c027a1b1a760db43d1799ea71cd19507c7461c3e2dac15bf71e9e72e6ec4744b664075d1ba30f017a1ff5a7224fdbfec07eb8d295cbf5d37511617f84c1a000f67f86ace3f6253407750c9bb5097a320fde0943ef411a10d0a57e3349dd8e5e54fb7898bde553d75b68f5aa0e6a074c2a40369d7a353ef6d19b8275491782674c73d91c57e08d4c4d838d5c645ebc8c3174cd2a079a3185fd067a4c9224ccb9354e3c4fb6016113e74905de1cb13fe2a9b88e84209b2582ef2c007a54a7d91583c06890ac8353f07b86066fdee056770a33828d2d1c77e9b5d305073de442541b7a5d8942292e1ed0ffed5a33ce605a056cbd63b8bd224805a5a50adce79d257b074c6b9d66f97a5e5bebb9868754405faba75d18d9a8ff86a868dd951291ce3775b0efcaa2751655728e7a631f2c9d90f8d7cb10099f531023b9a2e94030d528c686b4bd2e7d692d975c02eafcbc7a661a94fd3064d8333b19c5a8150b79aa13fecc00af6206b774b364101d7b2a0713d7956a017a671e71d8740323ccc5dff247092e4ed406c5d90121cfe45b87599c8104e84f2e0894707a7d37a1e253ef230fb811e1c3d2de954723b009a92c84cbc90ad2d2be2b166e079edd798f037a9077e3823007162c2dc76b68962bcd650cfeb11c06079462bd16b035dbc40307fb1b4248037aa106d846782132a573f8384932f0288294deffd8c048b2e77351fa5f04322b07d5370d82737aa977d0a0419baa9ae79c77646f17d8b5a6df3b3c0d8a0377cfc0712a6acd6207635ff3ef017ac7db1532747e1ea73d30c874f07fe39e9344fa01da3440d9e492dd1940245007359d110d027ac977b4a4ab8706360dadcb4abb1e4efdc0db04862d0c2092af92a7cf3dce560783f2fb710f7ad4abcdb9174cb7dbda4f88318d1b2071c7a20c271cf9aa42d789aed4b0134503c935f9b77add236a191d9425e2fdf1672937d8cea0b1305f75effcb7ecd521c715aca735007add26368a08553586ec2c33de547b63fc5e7d260c863bab31cd2fa0dbbd49150750b140332f7ae0935a09c3ec1672f45a6807907f8820882cec377c05b342f0e10988992a73070a3631909d7aec6f6451213f5e608d962f8667d71d5b0a607412fb8c178ac0a0682ae5bb0e037a3f40fd7af845529dfba95852c361f3226c6e830e6f16de3cbd0f2cfe0d098b7429586b071b8d9dbf027af8e6aff7f2ce98a21a32ed102f2d0e14c0edf1d22a801db1e751b4ce4d8464077508a560017c07f13a0a4dc987ee1a186ac77ca0edfdc0a0c38687a68919c3bded73cf407003a0a7ac467c0fa1d69920765a2c3c3caf473d49cf34296811b1a500995fec9ac1558c0e3b033e7936807c2eec3118498bb0c22fc952155a2d787376c1e6bce0ed14a25e64fedb460e4e03fcf514d07c375a17e754451cdb404e2e0fc9616f2028c3e6c7577e934cbe85093b76dd67032c1d95b97c404008d898a60fb401e56429dcd46a72b5b7b81fdc9e353963a3f82b1a0f4907bd4a75a0027c5cab89da0291ed6e77efdbf8618d00d6da1fe8ce5b0dbaccfdbc012143257e0358c2c7d47c632c673220b284b457851f8a8e763154e34f0eb0cf4b18f78e2e46c4a28d5b072d50e803017c71f416f8081c6cac6f31b1876351d6943ddd0a5c7e4f57c04b0dab2be6616107dcc2bb7b017c74e5e7bf8de0c24029fcd590bbc87613bcb867c0124ee617f25362f633da670761a47746027c75f3f89eba6520b9cffa68bfaa9cf0bc0e9d1b7b6ce2358ade1bc00b09a25203118520f37c7cba9f279d18c79cf6641caa76b191dd4243fb447398b3ebb23e037bdd25390720ce1464097c861a3eb898d620640cfe5a1aa2e9a4383cff56d4380c146a840a129eff257907afb0b936027c89395670a0b2b33d934ceee2c5b7bcba30d1735df4aed48317a91143ccd4030b5a9b98ad37017c9577230660a27600f69a2438b79d0a18ba131a25f91750c05cc457ae85a57e071e38a61c017c98c014073afc9fc69faaac4ec56d2cf17a85903c527937d6395ea0c922f414be2408307cc5a0ce90d7a2d225988e291beb84df12b58ef68f25f2560363c127eea5cd6a077300413a017ccd12a95da5b5b145349aae43e96f330e6e6a2f457fc0423c77d667eb60ed76072597a66a047cda9a2b112c97fb2ac9d5cc07f00ce8581fc48d60b8029a31841306882bc55a007cf0ea01d4b02793b66a865b65b39086ab2d9ec90de2c635294a73b43427796b0b31db29b563017e1eb8e21234a430eef1b61d2b4debe49fdfeeeb263c281a7014ac61ab3f830c070e824873047e21fca6eddf419b4cf03591c0384dfd1ce626880515f978ee9b23255e23be69074707311f167e40e6489e36c99cac2502b91ca7626c5636e5746150b7e974fce5e43e6d623a076f901d92077e504e26bb7ed8cdf34828e644da2e59274ba68e0721f9f95f3614a1e390fc04072f75fc6e3d7e53aed85bbd625767639adbb1e8448582ca2f1c9a191faa7d40495aa422251b07f124ddc4257e5f0e9adcb592c50f3f8f7c4f3f29256099f92af653aab09c84bef25310456207b1fe7f70017e6e48dda198940df9b6a309fc9f3e8abe6ab23cf913c634bd83e038c2a8de79007e77fc8869304049512bcb1d5ec6d31aee8fabd4e1f00361f4f22b17be22a26f0716e2fd860f7e926fc17271dced5f03488f9e58ea85f6bc9f2d8173ad69293d3519cbfde02803ea8a85437eac2af6a209791f0fb4e013ec8d3390ab205a257ecf6ce353cdecb3da24df18077e893990107eba56c85f1cbc4cdb6c94a358b4367735c1386b419e97407f42ed64792e0403072650e871087ec108c706037f138db12a0d52e69bbf614aa68db208aa93558a42dce2067f7d007efb05eebb7fc47211001d382bba4ba223987d2652c437e50d8a70b7b523102207d401410203800e3d2f91f5feb3f51659863dbf5a0c5c3c8fa3898c658cefd8afe6f300a52703b9d6abaf80405c42b9879f08ea3232c9bbe5f9375c79cc77290287e7b215e3c0cae6cb50071dd8a6655b804985f8c316072ac156f86663c8506812a10f3458c08f13f993efbafd5e026303bf7bca7c8049dc73788e5e216f7de9403409a429aa5064810047ecb2bb251f069c8a934b07e8f8e14e298049eed24113485928cffe1e38a04c29bb7a5356b6d486be2a08294771810d1c07c0fa983d06805a5af67a7acb6834f2e47a73bd654532297d99af542274429611c0b8dcdf3a03ed7fccbc80648b405846eb6d168a2708a9905e1b96594cb29f135a1a80322eda15a2745407ee0f1ad90480823d2bb90befd2939c67b51b3ed771f349c9b88bbbf90e7d96d187feadbf5507c43ef0050d80a9a4f3221e856da4cc2977c98a34d7d97082e80d049459ab9162026086af2907a64f40bf2580b4cd9437e02aba12828e3e155d268ce5257bf5a16ee3b86f3d99d5a5546c4f02a2bf2180c0c8618c70b631834692a76ad45e41a9e697605bd289c45fe587699eeab64107c98d91ae0c80d27f264e191a0c86d1d03fbdb09316923c0bc97ac71bfdcc166a01ae25633a0709d5deb88380d5c677adf236caa4d01e547455ea33893eab7bbd772803e6808fbeca69b6230b68c4712d19148209684c57266f7d18da9ba7aa1361aa5f735d59a34321715b956f307e3be24f0717dad8250782101742a108178a150027418fe818a38ecad1cbc945afb84d326de6c867c47f076333b92a75821054818589b4b1252fb41aac7282ce2eb6a50dba59947eef48a5316e76fa0007c47f44620882136c02cd8aa00ed3b276e300167cfcf3261306d5d8bdd419ae5e59ecb04f1607e413b2b602823bb73af288972cbb17c2c021f574f6c51e27e0b7af734256b46881faab5a46077e7b27c00b8252c7d882d588122a77662e24b18d32702126f2e8c42b38a92f6d321e44547307fe39eb5a3a8259a93e336e60189613f53504f0667191816531520b97d2d0923d004c8bc91d03aa20fa48827ec25545d1e1b7482780acc0fd87ac6077c0caf642d0e2965cb93dc1c4973c07dce41c0202828d60da17fb8e804c9f91d0e51fb2f8783810076a29ab1ad47603592521386107bd80257c0182af5de5099a4787fbf1295597810f1a10d9749424659056997ebc49eb763a1d073bf93b222682b504dd4adf0fc08d28419990306ed9a9ec97b34a44ee649b6d244c8ace523c07fe359b880b82c14df5653f8633612ae01c9099b533e850265d1ebd23e9975053d1195d362507519167a81182e4fcb51d694bb51c4446f0b3c05751f85c58e26acc14cfd45d4d9487bc623e071f08da1b018409be6750496c6431daaa85f1a2c437334a12b6ff40de4482a2a43e4332ff3a3a0cb2fc840cf0d7048badf54205bb97d3e217810469882262d43db8017ac30e271087630727d654ea0b841491cbaa31f415f5bd98ceb43172d5409b2235cb6f672472477430d4281f0707594a6d7702841c202f4470ec2c28591816c92486ebb43214cc150bc618e2d5e12312ecd67707c645710c068426cf61eb1aae150e3f85542ab42a66e2fa256feee36b137be1e7d94551cb7a07f3a624020b842fd204efa5291a7f991fe8c7600fce2ed7e772d2ae794c93a4affbf1e3ae3907367445cc04845c7590284c16bc4732faa6a1f9197770f2eb706f7b82f30899f2bc431c996007b38428bf0384660b9197e1ecb4e4efa27dbc5d1187a8d5b988cbc837a30bda5936b3a1783dfa31b6be84a3d396b021dd146e057b8d8f4588a0cf85fc993d1dd7e1ec7d2c708e07073707305904ed0584c0219ac3a90053ced7a20ea81dee24a2d83eb26480a644c468e981d9c2f822077f7dfd2a0884ccfa73d6dacd39bd50911cee27d1d6dca5f2f2d1cbb5ef37b403a7575e2454074aeeb7c10e84ceaa4d69b9c81a90153e4fc197b10bc8c2545951c142bc4c2829891e77c277076b6d0ad40d84e6944123cd0605003591653a8f1f204ef3a74a9a9da033d2b0c36df0b0cc2207c285f162428605ca151c708241123adb9888015f727ee92bf0317a3ae8fbb36d9770691b12071f17fd9b1f860dfba753cbc53c6c040716d612885ad0231494d82e61ee16f8765c7495722e00861352a4c2275f8d0cc81ec1db9fe7f703267bcc0504348af02ffd8913bb6758a24e3efd8620d2f08c9ad86007b9cd1a6f64dd7be1ca58aaac66483a60202d083ddf54170086300ebb0f4c74420b634db502f66ee89b9ba36f80ec61068cb1a42d9912945700863f168488dd69d54a4ef4110286431c8b3c3790761d441639d4dd62c0fb707107454e0559098642563f7a9968977da59cf5d360bf25bff145be3bab31ffc1b028e85724d5660319a0df4e864c5b6923e6e7c8f34a0d909bab2d69a8cb37286d3639a5a058e2f119b58c750771c2f542088660016cd533e939ddd0746fe9c3f273b7d47b196afbfda8d773107e4e546107023d5d1a8687cc19e4312eefeac4c03e31d581ae965b9fdd7c7bfa7f6ed68e2c0a19932507bbe1bf01078693e92353bad2fd780d3367a12aa3753ada8f89a0e1d4fc1edddc639fe45b6607855abcfb0186a608837d629006465bc562d6241027f6bb4549e52489cadacf327d873f6336078e5068fb1686ab9150874568b2b21d96ba05b4c6a1ad7ff82fe3eda770392cf0fa58be0b10077ef6cfa31e86b5e63265b07f94be931699248ed2f1ed8d9c1182528308c54676be798a960503bfa0264086bf62a9c2e87904a0a6cdeb14736893c31c6b322c9e080778b0e531039e9b0b07852bc4330d86db6ff287ec9af38ab3f5472edb7d77344935ab241c87046dcf746352e5a72d8296f6bf86f2e843970360a1660ebb0ff021bf72291e73146da5102baab793db7ddf125307592c3c201386f6c03f47fb860e45238eb2beac9be1757ced81667d11dedccfc432d572c43f07ed4ff1ae028800c71d9803112f541a84b70181e6ed0bd6c777f2c190867e63bd5f7f12145d07d98268e50388041c68590049560e37daba21bd0737c570eedff89077596b90712b49db1545078c4cfb6c2f88059596dc5f7161c1e212ad23b3e08e3e0c3f00578f2dfc1e94d7964b159f2107a1898eb62488221aecad1c88a832b0d1379e1f046b5eea559b7cb01e47833485a18e22f925072404b21a0688249b9ddc683850689c41ccb7abe61c4805b4b8860c198c546f2633f9208d7e07cee34b6f04883bcd3ba15d29f70cf23f804d722f72a3cf8bb1b1170472c06b868213a6ab7707690636920188643220bb403430995cd733fe48371db706e6d43c54b26ba2a53a033689c05b07fefbf5572588836397ffbb5e91e5461ce31081f93d8f1ae51cd30cb34b9f75f730860e427a07971b6a3a078886531417279d9b32cb4c08feb56764fa51978a5b5232beb84e8d3e99d1ec6c0701d073b207888e10922458b44625b7db1ae77d78e21e35014a5455ba1337dbcecd716f0050079d18edc00288a7d5aa6791b9b33194dc96fbade6195f67d2e9f2c7c213887c99e68a238e280088e378c8da97d47f63adc8427c4407ffe10ded389aaa6db62ef58bf1158be53e07bae4bb2d8088ed91c22523a780f72a2b3b00e81f7f8bb7fd25a70e11a345763c181b391b6f073621d4560488f4aeac15cf43952dd697e4a5f634d796f2aa8d6fb065498b15f2052a01b01203b344e68a88f610d8cc4ed9df74764a17f25dd18372a0fa90ff7b5de6b4625eb84077385e0355faf2fd88fa063ebecab4fdb2764446e060317d8fc77291580e41a3d5c801689f6e402207ffb4b612018a05b73e27e6a1cf802ee16f1e8cb3ce5c5709871bd769553dff6bb70fc3ca590a6b01c98a12a3d7b9d9bca5a10e2134f8c69598f91336d3e8c5747e85f99a6fc8af6c3207ed317ccb018a1d8353a42ac4d2e04ef1e94a5543d6983e6fe81211f1e407e437f1301d6f3d0714330448018a2192790335df2f12084c461ec744032ee97fd4749adaf3e43e7a9774ac9f36008a3aba778a8a54218c562ca11a0f9957ff655f3e3eb63d29f1884d6e68b22c61074cf91f5b018a77854199dcf111c617c70cd397877a2d13ad7269c5b4ba35689292eb03f6598e89bb3b8a80aa94dd98151526ae7d7291fef4c11ffebdb450a97f34a2228578a759cf3507132e4b22038a9759b8cc586e447808a896ec341558373039d3e65aeaa0c745482109f44d4f07ec509c06668a9defc40ac0b95a65c0d076b48fc26756dad0fef6c2bd288183af3ebee49974076bc3cb0f048aaeba9a1e789f02e870b2fd2b552001a5b605a23fad46033734f397c943187503ce38c0408ab8b231b540ad999cc1f80e22589dd8d26845da1008c74675832552adde4264074275dfff018ad8b23cbd70555347834ee98f4f1c134af89ba0f9b5b56a752f6a757ced756f073daa52aa038ae0509b4f58d31936f9918070413c984ddd0fc6d7c27bada3fd0c3d0431d8270784a8ad8d028af87e648d4f8e6f9271de99121f98803078d8c0839512bb02baa7ec9cd2382b07de0330ac428c048d8a69a6f00211e0cd407d9de462c14ced52e3cf88fbeb376f7324ff4512b6e0dcfc8c261503437635b9aa7689afc5650f684568c56c793ec2ef26f008e69739a64a008c36ec586876be3b89ac342a7b4446e78bd4c394529c7ae347bb335ac307425b07e852546e178c4a2012a56a6ea3ef56e294b92e71b0b06f6e0c733dec8135ed5d10f80557670760372495078c5bf46fe8e3dfd3549628933955387319976a0e6a8ab7875876a0be6217e56ade20c24a8c727ea4213998de1561f154f4d3d1ad74a73b231eceefebe2b71202d8fcd9370763dc814c028c7676220a6c26c736dec61d4c4a7a86f2b18db83333110f3df8e1a1ee794e0703cc0b75408cb1edd81f63dc892645a6ef87af8f7447d1ed767efe62dbc0d81a09fc1c100e008cb7ad3e6a91eefb9181926d37419a7e1910eaf6b7ee0db6767d8260d7cdc038668b11688cbe782260b165806bb0ab4fba6ffc8f4fc7cd687c3d3ff1101097409012e15a07a78c5a05408cd825821bedf6c6eb0b234331f7cb3549eee26ec6926b438121cf5a293c837e07d303b8e7078e03f8d1efe236e32741528cedb6b47b7d1c88fba643f03f398def8ab918d17b071a87022f078e104c1280b480bbbe78b314771f4051e1fa86b67c71126f353737520800bc1f07e2304cb3098e2f3968fc6f4b1964f2963178253bde8f1efd18994b6be1628c3cf8293abe1c07d6dac598078e343cc5e068a7a6a85871521a18cbeafe52f2c8b4013bb8151aa3e6e8c9d96a072c1e2da70c8e4aeb6f67189d96d59cfe29b938759e75534c36926d2e0369b36dc08d49eb720716a9248e178e5a8812c3eaf3ea888512a5a1dcb703d77513dfe34b5685415d408911af196c07833b417cf98e60bdd7fb0da0786466d90fd97fe92af52fc51c3a2d3bd8dec7d1d7a755f40a07a57cff630d8e85c0f6bc750f83e4e2051f92eca543e672b5918bbd8fe447fd4dad210a5c7d0757a5b8a3048ecdf5656485d315f24ca8448f59f1e4cbc9955d19b6e69e82190f13b79bea540788190103028ed531ca363f84cc00fbcfa675646ac1b4263c69f34a0756dfe64874dc6af12b008ed697bba90d4550d3286b7dc7de20e2be91e341e4c8a581fff59a7afc56555503e20de96b8ed9c2cc168b4a08f34fbbf9030e88e9b721e7224559cc38a0cfe31fb9aa480207661822e8018ed9c3c398ba8fbc5748fbabdd3620ca8fb2c98acf3f574fd61624446d6d6106070c0969881b8ee635108fb0d091ee7b219ec1550ccf9fe145c85c92e6ce098bff4a37a2601c072ff33092058ef76a6169978a70e1551eb71bb36b8512ed10d345009c5c93f45b6c450ead240307a861fb90080517b04442172e1b3d9c2990bd66221da5560618f269ab3f6efe1c43575d07cabe61d81f900c2608716f34042a5f662ed75d8742de92523ea89e761d26cc044a36ea7c7a07fdf8da3b019024824e32f0ab52e5cc32300811bccbd664852b8d6bbe328b6a0fb869b76d2e0796b15d61029046bb4b2acf56e23ad0977a961d208d302e79cd5ae57d9ab3b2d07e07b5cc3c0090472d0817a7c5d575c396126931915ca5e80cbe9748e2d0d88ce65352232441076a473d950a9069656895596e5f45828804ba9da44cac3177e55a43f046212fbe2e5af2c805074d5d57d90c906a3375595f7213b9b53492a421058cb4cc4083995a31a5a0253cb5d9f236760090701403349bda5f2eb183262394463eaabe7616f995a4e269c62965aeae272c0750d707da049086a8231aa29176b57c1e4c4da3aa336dcd9c6e884952a3a4fc3893c58c1e550712bca44c02908eaa6bd912b97bb4c7c533475ccfbf10abf457fc03017e73fb25ce43e705580757cd97340b90a0b85980a113ee464c6216952dcf06eaabde98d354ff603cc65e036dc81f2c07cf280e880690b007333727280f94d5bd669828683f4dc431a6a2bc5a05fd4cc86d9e2f574ea2edf06390c32604fa91de45bc55a676e17d0c78792c6511419fed7dee41e1bf733607280722497a281190d2bbb487d9e9bac6ddeccf5577babe3a62496d1d3afd5e726f22db8666fa61071e191ba2039210ce2754ca378858017f286119742a5006a336bd6e111b6202c10a78bbb7030777c8d72e0192176e704922f25d442e8a3c89a29ff943ead2baae8e87f63f6705d54cc1e042070a890012399240af959e87d60a4d8fe838fe69ec919efe673bbdba6d6d577c48b642f1545207e2676ac01a92431f4cebfe593fbbba89bf560e366e7ad5afd7a8a2c144cd324abd512c544332d4c347925e4d2cc74ff07432ad6fae335d795c0f1ab0cbf6862acc8d33568dbb6c593707bfb79fdc529265536b05e7c2e3bb7dc82080f5dcf2a10f2d54795690f07e7538340b64c21507feab0a2b0e927b9207ad043ced2de3584acd6a1af48bad4cd4206179db47d1138397d397770783f72a2f0792a81f56853ce9f44837dd5f3e138dc439a0b7cc29f9c1f43bd3d8279acfb47407628f7bf50692a845b23153f80eb8c769944a4f9f6eda3619e6affbaa4d0b4f11916f38551d073ad526b41392d57bc35af8f158a6cabd15965c23d3fc098d37f1a95c7fe4f4ead9e794b815076ee99456cd92e69cf8d495b7d3f2edf33b1e8f08b719fcd58fa7a6dc61c861f0f0fcf40a4c0092e781ec919d80bfe5c163f159e89921d95e20ac81e8cc1aeccadc249e1f9b000092f26d949a4d7e620138fba77a1e468cd954ee0402fde69fc4f1f1088a611e47075fb0fa520192fb7da070646e30023e1ce6d38eb3859c9075f9681dd530a6f16fbeb6b26905076dbbcdd126940018b113a37fa0fba16334b29c8a0b5b19ecfb0285d6f842c6a1c0e5783b4607059feb624494139e1f2a15c00884c394163dba18f82795a7d296a3136f6161583389c1186907ab1aec590b943796a392f2a92ea7b18498a640e9df90137d0208f297755b9c1ee771d0406e03b0bff844943fce5569ccb5919e7e627f2890b9ba93295532e4a3f69210352dd066c47d4607ec58d28d03944341b1e117552d48922ba556f5823d06503de060c2131a83b9db1fc6fc014c07eb26018c02945149e673b536a440126df93626f9f981499d8462770c45f564be11c56b031e07a265326b0894818ae536fee7e2a4edcc3a244e641208300acb964caaa1db6390e88b0c1f2207e494db2b0794835812147e70038e9a467fd00531e5cdb9a594c811125a899ce0e8c0f0cd57074959c45b8094835ac65193d1cafd21aa784caa128f4d5e8ad35f7ed819b61910359a80a670036e6a20b494a89d96be3b183da6969146cc5dfabf3e74d0142efe4fd4fe22add344667c19071c0052960d94ab5b93fa87d59446f813b7b5836e9e034c576c4b5b3199b7ac9149ef154d080315876b4094b35ef4659ba699734beed1ab692a19e64ac353624587811ac0831205bca362070274918e2e94bf52683b7718ed2274c6ca8f591c82a2c67d8185772640acd67fb39f50b72e03d5faa77d94d1bfd169da97bb70ada16dbaca5c417a8cf94f7645a43e2a88ea5a0c9cc71e07a868becb3294d7c4a40f3acf74a347ad4ce21ef53cf48208ebfd34143cdb26a556aa5a002403a4fd065a94d7d995dd2acc836b5ec1b815e820cca83f5b40d538048a6ef3f81a44bc206b07004d683e1194ebac35898ae785a759f4d19032bb52d0733a23113ce39c2093ec402c26993b07f28b3ac50194ecba40d30ce4914c98293ad17c6190ba68f2e05607f4f8bf4b252cffcfce160711af25110194f1ec5bc04843a7cb4440fac7a8e30543fd16679307429b3248c7cb0853a27c03a9d4715394fbb14327607f1b0c9160321b7b4bbfe1b9bc1f3f2a246ddf28799b784990400bc963975f4c029605220c0dd04446f4db7f8b84f67055fec0d914c9e4e87984f53896af0f944b078b5bf37b029606d79c8080552369fec56c5b464461a1732437360ccf3b3ebf6bf0260eef110703e22760029616ad5350e0913b47a59293d58a53ac0fa210268de851d49dcbb9bc227dc61c076b8e7d4404963655dc775abae2d4f3bff0979363a09bb8f59ab62c434117d746412c84135d07eaab090b3596591a5da26a0f0f1b84e4d86a70f37959b1fd811575c36c51f2d842a849b00707fd8b1d2510966bb6dacc2182f8ddf26761636f13c0388f569e15e3d771547926ec82a68b666e11ab8b96a7ec21047d89620c45bb9fad831c649917b99e20998944a9e98df9bebdd2530715c205740996abf389a6445112d7a71a26cf34bdab717601d285eeba1733c5a9ed9528b9400762ec9eb50696b41a8c1c9d0d98c50974d2f44cc305de18dfea4aef38aa796ed0f4433f096eea6e83b196b539522fa4f95bbeed6568c0c54e9d43e4d4df5d06deb269810713cdd3701e0756b092250396cea4790b92770f7159ea2a733f68d061c463c02384d74d881790568199c22e07394468930196deae966aed9f0138d270e8d56c975631bb91c3401f49b7ae4ae8cba129ce35078be3837a0296e72ec31a5c435a078f01ecd1869e8d7d1abc0669ac08bf77348279c9cacd0f07b586fe1d0d96e9e0b2928d00e47de830e0a831fe10961fc4ec1b595155d6c1782e8a54455e0bc186471b3d0196eb425576f745e78b7c2f92345e1de919bd57d833fcfaed58bdf0dddd1bdf5f07ff1617651397d09f8cbc580e7de0f1faac6e86bd29cc35e3961a823af3999c09e5302df62507d3a12ad3c89806d5e5733b00879d01398223ea1b6f770a69b03dc481d2e949d71b11ec8f1f039721e97b9810611d66c7586d10683bb368c73e4e3c3947213f4e38fb1e078e9419db9c60071721897d03981b6e8f56ec9e297f9c9d8d47b602ee86c6d4f5f97ca34193a9c83264decc030760e7c7fa2a9823d24e8264505040bb4d68cf7c6374b8a2b5fc34cf917a80cff0199016b9380730c6be0714983b8f791fa66300ca7c0e0597da762cfe0aa4c0e9a5534382d3e29ce86cc77707a4c5eddd11984171e628547c4048b5ce062ed21674c7628a7e4a0bebb1c2f62018fd4a842b070a6a03470398485f8ed582ebd1045e4249c3aa618a77f5ee0630d25d292171bb8740fae07c0388fb6b569871698470efdfa77afc6f1d6aeb5ceabc8c3d846587b826e03d46863573a42907e296aefc05987caf1178770fbfe135ac7ce3c2441d9ed39a4fafab3072d19676851f55ba3a07897bc95f059888b4e2c94049a149e05995908b9c570a2afeb77866298e1539114e3644b13b07b2940bbb5198c59d54802f1cb487b25ca9d00d1ff7f6e645d42dd9f99aa0b85bd987305f5a0736296ca41198cb44fd4bd54c406eed82a5b15b89dbc38dbbffdfb8b166e324e03ce7b0c214073b0b6f150598d3ba202dc89031e43f9bd68ed325d99b1ce9c4154bd39d6a3b365ce0d2a7260365d030c498ef42ce36de6127e5900dc6da104f27b72153fb407a2a6ac74d25b839801e2207a4ca7b2e029a05d619864a96422e4ed16e6e1234ae5fe99d04c3b5decab8a65da5eb17217507e09e8dab029a16b7144d19193e4b95e915fe26d8d675cd8256b8b34bb8c93b04ec07da545b0736a4bea4039a1e1506f846c40a2bab3bde18a1a06481d3863bb2d5d0ede53d05b5050b322c0741a9b3eb7e9a291e48986fb95009da9522e53d89a28499ee3f8b534c6ee1139415efc718200706fcc5345e9a2eadaed1a3617b4f57fad8998a1887adadd5d040f60395a351c195c663c15107a1f0e180749a3be314a60a04f1fb292ea6fc848fc180bc99ced611087b57bed5456d80f91907a3683872019a806572de291a707b69ded78802d7e2794f572fb4b6950eb26437474c0bca6f07177d7513079a85eace9d9c13f255c6b5a732465a50974d8848b6f9cacc969e9bec153de33007f03cd8a1019a8705248d97b34aa20e1cc97b60539c6928b51c6adbb9fcf3bce3d434613d2503bb50b2aa9a8f3c50baf31250887c5883174f8375c59654e1377b68557225d7928954a31907d0dc2cc8019a90800dafde3df5fc7ead0c307011d58fed0c89d2944a9d6feda247249e746466b166349aa431c09553b8a15f363d98d979ac77e4b18c954312823e5f2bf1af0b47e668075981a06d4f9aaa53dfda910bd40a0906eafbd94a1de7d7750c5f7dbcd88a2e1d3e8926f54507d8e3ff79039aae6cbba0d0558d5911913493347bbf40c376de8bfaa8ace22a15c274d4be1f07fe0e8b0b0b9ac8126e0b32eb9f2b9f41464b8d91223dc4105796442f33e6abc3828889bc046e2bf0fb9ac97f8563b1d4aa766532025d944fc7763884e0833519dd9fc6fbd22f19eb17070e155614149acb80cac7deddf552863eaffc7fd5433adbcd6ec4354df2ea4f77a320731079077069d53e069ad48e5c10b8194ad18b9eb159f4642431e3b0f88ed8f275fa7ac3c26670864503b58de3829ae66ef9b29e78f60ec23889b4f17609984a9bd7c75c9ddfec31f490bec44b42071297aff4089afe0c6b13cf07dac51624ad106678b377e76f4497fc0f2a8308be4775b5601d074964bff6039c08b824a4b84465867a52ea347f9fb7eed233c32af7573e9ff9dd1d051bce58009c1667831557d7d09e185515ed5ca7912159ccc69105385b3f7242757c45eb3507b5d63361069c1dfe43155345713c5088aec0677f5edc96fc5d68b93c41b280a2a51494a17707ce4826b7139c20619f65c0ebaa496fffeb539edad66216969aea9f666efa8c40436437e647079768d4e90d9c2f8090ef7692f9ae336e5622866ff62fb528a0a0962e4e565b824f3519576707aa0f2663079c2ff6cbb91bba910dd85be0a37e08953e35de5b5f063c6fbb0b601c6cb1e1310779532b